<unk>	0
<s>	0
</s>	0
▁t	-0
in	-1
he	-2
▁a	-3
▁s	-4
er	-5
or	-6
▁ক	-7
en	-8
▁w	-9
▁c	-10
re	-11
▁I	-12
▁p	-13
on	-14
ing	-15
▁f	-16
▁m	-17
▁b	-18
▁আ	-19
য়	-20
▁the	-21
▁কর	-22
ou	-23
ed	-24
▁k	-25
েছ	-26
ha	-27
it	-28
ar	-29
▁n	-30
is	-31
an	-32
▁d	-33
▁এ	-34
ll	-35
at	-36
ার	-37
▁ব	-38
as	-39
ic	-40
le	-41
ro	-42
েছি	-43
▁to	-44
ay	-45
▁e	-46
▁g	-47
ly	-48
▁হ	-49
▁স	-50
▁re	-51
▁A	-52
es	-53
▁প	-54
▁l	-55
▁আম	-56
ho	-57
ver	-58
oo	-59
▁T	-60
et	-61
▁ন	-62
ন্	-63
ent	-64
very	-65
▁y	-66
ri	-67
al	-68
▁kor	-69
▁you	-70
ve	-71
ের	-72
ch	-73
▁an	-74
▁খ	-75
লে	-76
▁ম	-77
end	-78
▁pro	-79
me	-80
▁দ	-81
▁ha	-82
রা	-83
ow	-84
▁আমি	-85
▁st	-86
ck	-87
ion	-88
us	-89
el	-90
▁করেছি	-91
un	-92
▁was	-93
টি	-94
ra	-95
কে	-96
▁is	-97
▁F	-98
▁o	-99
▁or	-100
per	-101
ta	-102
▁and	-103
▁কি	-104
েছে	-105
gh	-106
▁in	-107
mi	-108
▁on	-109
riend	-110
▁ne	-111
ot	-112
▁হয়	-113
▁ho	-114
pn	-115
▁j	-116
ke	-117
ad	-118
িয়	-119
▁co	-120
ill	-121
▁very	-122
▁The	-123
ood	-124
তে	-125
ter	-126
▁শ	-127
▁S	-128
যা	-129
riends	-130
id	-131
▁proper	-132
▁গ	-133
▁না	-134
লা	-135
▁W	-136
ct	-137
▁of	-138
pni	-139
▁be	-140
ড়	-141
il	-142
▁properly	-143
▁th	-144
ur	-145
▁it	-146
ith	-147
▁so	-148
day	-149
te	-150
▁with	-151
▁M	-152
pp	-153
king	-154
▁জ	-155
ান	-156
্র	-157
▁অ	-158
che	-159
all	-160
▁new	-161
▁now	-162
▁ত	-163
am	-164
▁for	-165
ce	-166
ধু	-167
mp	-168
os	-169
ice	-170
th	-171
▁ভ	-172
one	-173
ant	-174
▁Apni	-175
ine	-176
▁v	-177
▁he	-178
▁এব	-179
▁এবং	-180
▁C	-181
▁me	-182
ut	-183
ir	-184
ছি	-185
▁ki	-186
her	-187
res	-188
নি	-189
▁my	-190
▁এক	-191
▁চ	-192
ag	-193
▁pl	-194
ght	-195
▁Friends	-196
▁বন্	-197
ation	-198
▁খু	-199
▁আপ	-200
াব	-201
▁H	-202
▁li	-203
▁h	-204
▁en	-205
▁It	-206
খন	-207
▁হয়েছে	-208
▁বন্ধু	-209
তু	-210
▁will	-211
▁P	-212
▁sho	-213
der	-214
ak	-215
▁am	-216
▁আজ	-217
▁D	-218
▁ti	-219
▁বা	-220
ick	-221
▁say	-222
নে	-223
heck	-224
▁par	-225
up	-226
ab	-227
▁খুব	-228
ul	-229
▁B	-230
▁rec	-231
াল	-232
▁can	-233
▁এখন	-234
▁ফ	-235
▁ex	-236
ess	-237
রি	-238
বে	-239
▁E	-240
ort	-241
▁যা	-242
▁Ami	-243
▁করো	-244
ff	-245
▁ch	-246
▁tra	-247
ee	-248
▁sp	-249
▁আপনি	-250
▁thin	-251
▁fe	-252
িয়েছি	-253
রে	-254
▁at	-255
ook	-256
▁cha	-257
oy	-258
▁দে	-259
ently	-260
▁de	-261
▁con	-262
▁বলে	-263
▁whe	-264
▁আজকে	-265
র্	-266
াস	-267
ment	-268
line	-269
▁time	-270
out	-271
▁check	-272
▁একটি	-273
inta	-274
▁thinking	-275
▁বন্ধুরা	-276
ther	-277
ack	-278
্যা	-279
▁recently	-280
▁r	-281
hu	-282
ছে	-283
art	-284
কা	-285
্য	-286
▁করে	-287
au	-288
জা	-289
ate	-290
▁have	-291
ven	-292
ie	-293
lo	-294
▁fa	-295
▁na	-296
fter	-297
ning	-298
qu	-299
▁whether	-300
তি	-301
▁wor	-302
াই	-303
▁res	-304
না	-305
▁L	-306
▁up	-307
ech	-308
▁order	-309
▁i	-310
িয়ে	-311
▁today	-312
▁ta	-313
▁feel	-314
স্	-315
▁every	-316
▁korch	-317
ave	-318
থে	-319
গে	-320
লাম	-321
তুন	-322
▁In	-323
▁নতুন	-324
▁del	-325
▁are	-326
est	-327
টা	-328
থা	-329
▁To	-330
▁food	-331
om	-332
▁রা	-333
augh	-334
ect	-335
▁off	-336
▁plan	-337
▁সব	-338
▁Today	-339
▁We	-340
াও	-341
▁প্র	-342
▁has	-343
be	-344
▁call	-345
▁sha	-346
▁দেখ	-347
▁qu	-348
ছু	-349
▁ma	-350
▁বি	-351
▁dis	-352
▁কা	-353
ন্য	-354
▁শু	-355
▁সম	-356
য়া	-357
▁R	-358
▁good	-359
দের	-360
▁bo	-361
▁N	-362
েয়	-363
get	-364
▁mo	-365
▁hoy	-366
▁করা	-367
ছিল	-368
▁we	-369
▁পার	-370
▁আমার	-371
▁read	-372
▁friends	-373
ele	-374
াড়	-375
ry	-376
ide	-377
joy	-378
ilam	-379
hone	-380
▁imp	-381
▁খাব	-382
▁জন্য	-383
▁enjoy	-384
ast	-385
▁কিছু	-386
▁chinta	-387
our	-388
ঙ্	-389
iz	-390
▁খাবার	-391
▁হাস	-392
িক	-393
▁te	-394
ivery	-395
▁সা	-396
▁work	-397
▁su	-398
vening	-399
ক্	-400
▁এটি	-401
se	-402
▁উ	-403
▁korchilam	-404
ুল	-405
ive	-406
la	-407
▁went	-408
ful	-409
▁করতে	-410
ong	-411
▁পরি	-412
▁ad	-413
▁all	-414
▁office	-415
▁O	-416
▁korte	-417
▁do	-418
▁ami	-419
▁আমরা	-420
mily	-421
ress	-422
▁sm	-423
▁G	-424
▁fun	-425
▁online	-426
ন্দ	-427
ষ্	-428
are	-429
▁If	-430
েছেন	-431
্প	-432
ark	-433
▁wat	-434
▁go	-435
able	-436
▁সঙ্	-437
▁conf	-438
▁ছিল	-439
▁not	-440
ity	-441
▁মজা	-442
st	-443
▁book	-444
▁সঙ্গে	-445
▁অনে	-446
▁ro	-447
▁“	-448
▁My	-449
hat	-450
সে	-451
▁mor	-452
▁lot	-453
bo	-454
▁Y	-455
▁অনেক	-456
▁al	-457
tu	-458
▁sh	-459
▁মি	-460
রু	-461
▁evening	-462
▁le	-463
ust	-464
ight	-465
িন	-466
ld	-467
rou	-468
ip	-469
cus	-470
▁some	-471
▁had	-472
ben	-473
▁come	-474
vie	-475
ায়	-476
▁হাসি	-477
!”	-478
to	-479
age	-480
▁delivery	-481
eting	-482
oss	-483
▁like	-484
ard	-485
▁cl	-486
▁bus	-487
▁sa	-488
▁pre	-489
▁হলে	-490
alk	-491
ind	-492
ai	-493
▁phone	-494
▁jo	-495
▁day	-496
pping	-497
▁Have	-498
ালো	-499
▁been	-500
▁one	-501
্রা	-502
ure	-503
for	-504
▁comp	-505
▁ভালো	-506
kh	-507
▁after	-508
▁your	-509
ep	-510
thing	-511
▁family	-512
▁vi	-513
ffic	-514
▁ঘ	-515
▁ছ	-516
▁but	-517
ortant	-518
▁bu	-519
ash	-520
ial	-521
oon	-522
▁কাজ	-523
fe	-524
ooth	-525
▁ache	-526
▁মা	-527
▁prep	-528
resh	-529
▁everything	-530
চ্	-531
▁rep	-532
ppy	-533
echhe	-534
vel	-535
▁us	-536
▁সময়	-537
his	-538
▁smooth	-539
alth	-540
ma	-541
▁ar	-542
▁gele	-543
cuss	-544
ig	-545
reat	-546
▁morning	-547
▁med	-548
▁stor	-549
▁important	-550
iv	-551
jke	-552
oll	-553
▁discuss	-554
ge	-555
▁bha	-556
ought	-557
▁quick	-558
েল	-559
▁Fun	-560
েয়েছি	-561
▁man	-562
taur	-563
▁bhalo	-564
▁হবে	-565
▁করেছেন	-566
▁ek	-567
▁শে	-568
▁home	-569
taurant	-570
row	-571
▁Am	-572
▁পড়	-573
▁apni	-574
ga	-575
▁sn	-576
▁য	-577
ish	-578
▁kora	-579
▁eas	-580
▁আমা	-581
we	-582
ist	-583
▁laugh	-584
▁parbo	-585
▁share	-586
্ব	-587
lp	-588
▁want	-589
du	-590
এর	-591
াম	-592
ble	-593
de	-594
ollow	-595
▁ready	-596
rom	-597
▁meeting	-598
dy	-599
ল্প	-600
▁health	-601
hub	-602
▁happy	-603
ti	-604
gg	-605
▁গিয়েছি	-606
ap	-607
▁ঠ	-608
জার	-609
▁mood	-610
▁After	-611
▁fresh	-612
▁lo	-613
▁try	-614
▁great	-615
বার	-616
▁This	-617
▁out	-618
ile	-619
ost	-620
ject	-621
▁from	-622
▁Laugh	-623
▁You	-624
▁upd	-625
▁kore	-626
▁khub	-627
ace	-628
ere	-629
▁মন	-630
▁help	-631
▁পারি	-632
▁ভাব	-633
▁onek	-634
▁Will	-635
▁shopping	-636
াড়া	-637
▁cle	-638
ানে	-639
▁vibe	-640
gy	-641
▁shop	-642
▁bought	-643
▁restaurant	-644
মে	-645
কি	-646
khon	-647
▁amar	-648
▁থা	-649
ms	-650
োন	-651
▁com	-652
cial	-653
vice	-654
▁Amar	-655
▁বাড়	-656
▁ভাবছি	-657
▁start	-658
▁comple	-659
▁checked	-660
urn	-661
ffee	-662
▁app	-663
cel	-664
ran	-665
কার	-666
▁this	-667
▁travel	-668
▁তা	-669
noon	-670
▁afternoon	-671
ru	-672
▁ড	-673
▁ধ	-674
ger	-675
▁পা	-676
▁follow	-677
▁pr	-678
▁লা	-679
▁tri	-680
▁way	-681
▁Do	-682
সা	-683
▁were	-684
▁ভাবছিলাম	-685
লো	-686
form	-687
▁add	-688
▁ener	-689
▁as	-690
ওয়া	-691
▁K	-692
▁wa	-693
▁কথা	-694
ance	-695
▁ajke	-696
▁coll	-697
ted	-698
েন	-699
ite	-700
▁ra	-701
ফি	-702
pnar	-703
ade	-704
▁project	-705
cis	-706
ated	-707
▁water	-708
▁coffee	-709
▁নি	-710
বি	-711
ies	-712
irm	-713
▁He	-714
▁se	-715
▁bre	-716
▁ঠিক	-717
▁easi	-718
▁নিয়েছি	-719
▁pe	-720
▁চে	-721
▁chat	-722
▁stu	-723
▁inter	-724
pe	-725
ন্ত	-726
▁No	-727
chen	-728
gether	-729
ass	-730
▁আছে	-731
▁says	-732
▁together	-733
ুন	-734
ilo	-735
▁St	-736
▁jak	-737
▁vide	-738
ooking	-739
ক্ষ	-740
▁পর	-741
▁ser	-742
াঁ	-743
ond	-744
▁there	-745
ok	-746
▁energy	-747
▁শেষ	-748
▁খেয়েছি	-749
ers	-750
hes	-751
roup	-752
▁exp	-753
▁made	-754
▁সাথে	-755
▁korben	-756
▁J	-757
▁fin	-758
▁করি	-759
arket	-760
▁wait	-761
▁walk	-762
▁train	-763
ol	-764
ye	-765
▁di	-766
▁কিন	-767
▁Ekhon	-768
▁ট	-769
▁din	-770
iss	-771
▁pho	-772
▁tha	-773
▁সবাই	-774
ame	-775
▁সে	-776
oun	-777
▁get	-778
ner	-779
তা	-780
বেন	-781
▁সু	-782
intu	-783
▁বলেন	-784
▁friend	-785
▁prepare	-786
xt	-787
▁ri	-788
ence	-789
কালে	-790
▁sat	-791
if	-792
lax	-793
▁hun	-794
▁tea	-795
▁relax	-796
▁আন	-797
intain	-798
▁সকালে	-799
ctor	-800
▁tas	-801
▁snack	-802
▁market	-803
জে	-804
▁ও	-805
view	-806
▁light	-807
▁পরিবার	-808
▁traffic	-809
▁fu	-810
gain	-811
ting	-812
▁তার	-813
▁confirm	-814
ase	-815
▁mon	-816
▁গল্প	-817
▁maintain	-818
ia	-819
so	-820
and	-821
▁আমাকে	-822
▁sab	-823
eep	-824
▁sc	-825
▁ঘু	-826
▁থে	-827
ould	-828
▁bea	-829
▁did	-830
unch	-831
ix	-832
▁অফি	-833
▁easily	-834
ne	-835
ty	-836
aki	-837
▁বই	-838
ন্তু	-839
▁mess	-840
▁no	-841
▁ফি	-842
ally	-843
▁naki	-844
▁থেকে	-845
▁বন্ধুদের	-846
bai	-847
▁কে	-848
▁swe	-849
▁খাও	-850
▁ve	-851
▁মে	-852
▁শুধু	-853
ুলো	-854
▁আনন্দ	-855
ীর	-856
ানো	-857
▁আর	-858
▁play	-859
ched	-860
▁life	-861
▁make	-862
▁mind	-863
াড়ি	-864
op	-865
low	-866
▁by	-867
▁video	-868
▁কিন্তু	-869
ush	-870
দিন	-871
ষ্টি	-872
▁also	-873
ved	-874
ercis	-875
▁heart	-876
▁service	-877
▁পরিবারের	-878
▁গু	-879
ions	-880
▁kha	-881
▁lear	-882
ja	-883
গুলো	-884
কেলে	-885
▁Tra	-886
▁just	-887
▁করছি	-888
echhen	-889
▁ঝ	-890
▁বল	-891
ous	-892
top	-893
ult	-894
rong	-895
▁road	-896
▁group	-897
▁movie	-898
▁বাড়ি	-899
▁er	-900
▁ite	-901
▁king	-902
▁beaut	-903
▁stress	-904
▁গিয়েছিলাম	-905
ize	-906
সাথে	-907
▁joy	-908
▁শুরু	-909
▁একসাথে	-910
▁everyone	-911
ouse	-912
▁cash	-913
▁ekta	-914
▁trip	-915
ession	-916
▁Check	-917
▁break	-918
▁তাড়া	-919
leep	-920
▁যায়	-921
▁house	-922
▁media	-923
▁নিয়ে	-924
▁complete	-925
ুপ	-926
ore	-927
way	-928
▁স্	-929
▁Mom	-930
▁মজার	-931
its	-932
ূর্	-933
▁that	-934
▁confid	-935
▁smoothly	-936
স্ত	-937
▁bl	-938
▁এর	-939
▁নে	-940
চ্ছে	-941
▁বিকেলে	-942
ালকা	-943
▁need	-944
▁took	-945
▁নাকি	-946
▁হালকা	-947
▁exercis	-948
ized	-949
▁পান	-950
▁dead	-951
▁hope	-952
▁করলে	-953
gra	-954
নার	-955
শা	-956
ets	-957
ign	-958
▁eat	-959
▁pic	-960
▁রান্	-961
োক	-962
▁mu	-963
▁ret	-964
▁use	-965
▁keep	-966
▁park	-967
▁un	-968
duct	-969
▁যাক	-970
▁clean	-971
Qu	-972
sta	-973
▁Qu	-974
▁list	-975
▁post	-976
▁spark	-977
▁prepared	-978
▁korechhen	-979
োগ	-980
ork	-981
hilo	-982
▁mone	-983
▁them	-984
hed	-985
▁hi	-986
▁অন	-987
▁pay	-988
▁boss	-989
▁মিষ্টি	-990
▁Jo	-991
▁exc	-992
▁দিন	-993
▁doctor	-994
ৈরি	-995
▁vis	-996
▁তৈরি	-997
▁night	-998
▁inform	-999
own	-1000
ings	-1001
▁next	-1002
▁colle	-1003
getable	-1004
টে	-1005
িত	-1006
atch	-1007
▁ফোন	-1008
াদ	-1009
ves	-1010
▁sleep	-1011
▁vegetable	-1012
cc	-1013
▁চাই	-1014
▁দোক	-1015
▁What	-1016
▁hoye	-1017
icy	-1018
▁Every	-1019
▁class	-1020
ient	-1021
▁fru	-1022
▁পাঠ	-1023
তাড়ি	-1024
▁rece	-1025
▁thak	-1026
▁report	-1027
▁হয়েছি	-1028
▁তাড়াতাড়ি	-1029
▁পার্	-1030
▁product	-1031
রো	-1032
eek	-1033
tos	-1034
ডার	-1035
হার	-1036
▁inc	-1037
▁ব্য	-1038
▁look	-1039
▁কিনেছি	-1040
aptop	-1041
resent	-1042
nic	-1043
ten	-1044
▁ভি	-1045
iful	-1046
▁busy	-1047
▁photos	-1048
▁bol	-1049
▁car	-1050
▁spe	-1051
▁sathe	-1052
▁beautiful	-1053
rowd	-1054
ments	-1055
▁arri	-1056
▁champ	-1057
bm	-1058
▁Sho	-1059
▁চেক	-1060
gan	-1061
▁শা	-1062
echi	-1063
usic	-1064
▁Did	-1065
▁game	-1066
▁miss	-1067
▁করার	-1068
▁korchi	-1069
ert	-1070
▁উপ	-1071
▁kintu	-1072
ach	-1073
▁There	-1074
▁গিয়ে	-1075
▁parcel	-1076
▁hoyechhe	-1077
▁ab	-1078
▁gu	-1079
▁hobe	-1080
▁review	-1081
▁social	-1082
▁রান্না	-1083
khe	-1084
▁দিয়ে	-1085
▁dinner	-1086
ue	-1087
ারা	-1088
▁ক্	-1089
▁রে	-1090
ূর্ণ	-1091
▁অর্	-1092
▁task	-1093
▁করুন	-1094
▁organ	-1095
▁খাবারের	-1096
▁vegetables	-1097
▁ই	-1098
les	-1099
স্তু	-1100
▁হাঁ	-1101
▁fast	-1102
▁update	-1103
ts	-1104
ils	-1105
ates	-1106
▁take	-1107
▁Quick	-1108
▁প্রস্তু	-1109
net	-1110
▁দি	-1111
ited	-1112
▁bar	-1113
▁laptop	-1114
resentation	-1115
mor	-1116
ious	-1117
▁much	-1118
▁lunch	-1119
▁see	-1120
▁set	-1121
▁air	-1122
▁রাখ	-1123
্বপ	-1124
▁So	-1125
▁ca	-1126
gram	-1127
ring	-1128
▁ঘুম	-1129
▁back	-1130
▁Apnar	-1131
▁items	-1132
▁hunger	-1133
ving	-1134
▁lag	-1135
▁stall	-1136
sA	-1137
য়ে	-1138
▁খে	-1139
bmit	-1140
sApp	-1141
▁hole	-1142
▁WhatsApp	-1143
enu	-1144
▁Re	-1145
▁পানি	-1146
▁about	-1147
▁medic	-1148
▁হাসির	-1149
ny	-1150
তো	-1151
শি	-1152
red	-1153
▁ka	-1154
▁চা	-1155
▁bet	-1156
▁per	-1157
ossip	-1158
▁talk	-1159
▁শেষে	-1160
▁peace	-1161
▁return	-1162
▁অর্ডার	-1163
জি	-1164
aily	-1165
vent	-1166
▁cal	-1167
▁adda	-1168
▁body	-1169
▁pack	-1170
▁week	-1171
▁crowd	-1172
▁music	-1173
icket	-1174
▁hero	-1175
▁meal	-1176
▁better	-1177
▁really	-1178
▁দেখেছি	-1179
▁cooking	-1180
ned	-1181
▁hot	-1182
▁প্রা	-1183
▁session	-1184
▁আলো	-1185
▁stre	-1186
▁গুরু	-1187
▁fruits	-1188
▁healthy	-1189
cle	-1190
iye	-1191
uru	-1192
ুরে	-1193
ondhu	-1194
▁delay	-1195
▁হচ্ছে	-1196
br	-1197
tle	-1198
▁Fa	-1199
fast	-1200
ather	-1201
▁late	-1202
াবে	-1203
▁kn	-1204
▁han	-1205
ality	-1206
▁গুরুত	-1207
bar	-1208
▁Pl	-1209
▁এই	-1210
▁station	-1211
▁হয়েছিল	-1212
দি	-1213
্ড	-1214
▁এটা	-1215
▁ছবি	-1216
▁মনে	-1217
▁full	-1218
▁over	-1219
▁stay	-1220
▁impro	-1221
▁প্রতি	-1222
্বপূর্ণ	-1223
▁ordered	-1224
▁গুরুত্বপূর্ণ	-1225
ary	-1226
▁att	-1227
▁ট্র	-1228
▁star	-1229
▁ব্যা	-1230
ৌঁ	-1231
ear	-1232
▁pa	-1233
oost	-1234
▁sil	-1235
▁পৌঁ	-1236
▁funny	-1237
▁enjoyed	-1238
cu	-1239
িং	-1240
met	-1241
▁On	-1242
▁jab	-1243
▁nat	-1244
▁খেল	-1245
▁rest	-1246
▁Insta	-1247
▁study	-1248
▁deadline	-1249
sp	-1250
ani	-1251
িনি	-1252
▁ফু	-1253
▁his	-1254
▁kot	-1255
▁done	-1256
▁ride	-1257
mb	-1258
ues	-1259
কের	-1260
টিং	-1261
লাই	-1262
▁got	-1263
▁বিশ	-1264
▁apnar	-1265
▁final	-1266
▁Everyone	-1267
ze	-1268
▁z	-1269
ery	-1270
lain	-1271
▁করেন	-1272
▁সম্প	-1273
▁bolen	-1274
▁colleag	-1275
ced	-1276
rab	-1277
▁av	-1278
▁রি	-1279
য়ার	-1280
▁থাক	-1281
ching	-1282
▁হয়ে	-1283
▁korle	-1284
▁message	-1285
▁discussed	-1286
ত্	-1287
ুত	-1288
elf	-1289
▁em	-1290
▁rou	-1291
ience	-1292
▁many	-1293
▁show	-1294
▁boost	-1295
▁আপনার	-1296
▁gossip	-1297
hen	-1298
▁এস	-1299
▁Del	-1300
▁koro	-1301
▁menu	-1302
▁আলোচ	-1303
▁clear	-1304
▁daily	-1305
▁dekhe	-1306
pt	-1307
ree	-1308
ন্ট	-1309
▁Mo	-1310
ভাবে	-1311
▁fit	-1312
▁ref	-1313
▁long	-1314
▁দেয়	-1315
▁দর	-1316
▁ফিরে	-1317
▁kotha	-1318
▁think	-1319
ঠে	-1320
মা	-1321
ক্ষা	-1322
ন্দর	-1323
▁know	-1324
▁অফিসে	-1325
▁shobai	-1326
▁submit	-1327
▁প্রতিদিন	-1328
tim	-1329
▁Me	-1330
▁Sn	-1331
▁bir	-1332
▁books	-1333
▁breakfast	-1334
▁presentation	-1335
az	-1336
ik	-1337
ভি	-1338
ায	-1339
▁শর	-1340
bile	-1341
▁দাও	-1342
atter	-1343
▁bole	-1344
▁song	-1345
▁দেখা	-1346
▁attend	-1347
▁korechi	-1348
▁organized	-1349
▁Or	-1350
▁জান	-1351
▁বাজার	-1352
▁মিটিং	-1353
▁quality	-1354
পে	-1355
▁আগ	-1356
▁buy	-1357
▁fix	-1358
▁city	-1359
▁feed	-1360
▁notes	-1361
ication	-1362
▁chhilo	-1363
▁listen	-1364
▁Ne	-1365
▁fl	-1366
▁কম	-1367
▁দুপ	-1368
▁being	-1369
▁exper	-1370
oin	-1371
থ্য	-1372
নের	-1373
▁loc	-1374
▁fest	-1375
▁শরীর	-1376
▁আমাদের	-1377
▁খাওয়া	-1378
▁সুন্দর	-1379
▁Instagram	-1380
ন্ধ	-1381
back	-1382
ract	-1383
▁Pro	-1384
▁any	-1385
▁bill	-1386
▁comm	-1387
▁kori	-1388
▁দিয়	-1389
▁track	-1390
▁Online	-1391
▁feedback	-1392
▁র	-1393
▁ল	-1394
ied	-1395
▁Food	-1396
▁down	-1397
▁Order	-1398
▁ticket	-1399
▁excited	-1400
▁bag	-1401
▁দ্র	-1402
▁Joke	-1403
▁care	-1404
▁deal	-1405
▁story	-1406
▁tasks	-1407
▁stories	-1408
ঝে	-1409
akes	-1410
▁vic	-1411
▁আশা	-1412
েয়ার	-1413
▁step	-1414
▁team	-1415
▁হাঁট	-1416
▁visit	-1417
▁শেয়ার	-1418
▁started	-1419
▁watched	-1420
োট	-1421
তার	-1422
▁cr	-1423
▁আস	-1424
hing	-1425
ream	-1426
খানে	-1427
▁docu	-1428
▁কেনা	-1429
▁পড়া	-1430
▁ব্যব	-1431
▁party	-1432
▁reply	-1433
▁দ্রুত	-1434
▁Family	-1435
▁Delivery	-1436
েট	-1437
cha	-1438
cor	-1439
ged	-1440
হায	-1441
▁At	-1442
▁if	-1443
▁sk	-1444
iron	-1445
sign	-1446
chedu	-1447
▁Your	-1448
▁থাকে	-1449
▁লাগে	-1450
▁price	-1451
▁mobile	-1452
▁দিয়েছি	-1453
ft	-1454
স্ট	-1455
fect	-1456
▁jam	-1457
হায্য	-1458
▁dress	-1459
▁শান্ত	-1460
▁সাহায্য	-1461
ুক	-1462
ake	-1463
েরি	-1464
্রাম	-1465
gging	-1466
▁rout	-1467
▁অফিস	-1468
▁incre	-1469
▁somet	-1470
▁victim	-1471
▁exercise	-1472
ney	-1473
ারি	-1474
▁tr	-1475
ways	-1476
▁act	-1477
▁cho	-1478
▁ema	-1479
▁part	-1480
▁করছে	-1481
ourney	-1482
▁always	-1483
▁আলোচনা	-1484
▁ব্যবহার	-1485
eng	-1486
ked	-1487
ices	-1488
load	-1489
▁gif	-1490
▁more	-1491
chedule	-1492
▁explain	-1493
▁feeling	-1494
xi	-1495
zz	-1496
চ্ছ	-1497
রের	-1498
▁সহ	-1499
ding	-1500
▁por	-1501
▁পৌঁছ	-1502
essert	-1503
▁feels	-1504
▁silent	-1505
▁দোকানে	-1506
▁প্রস্তুতি	-1507
urg	-1508
uto	-1509
কাল	-1510
▁বে	-1511
ness	-1512
▁met	-1513
▁gave	-1514
▁wall	-1515
▁গেছে	-1516
▁manage	-1517
▁discussion	-1518
বা	-1519
ome	-1520
ose	-1521
side	-1522
কল্প	-1523
▁ban	-1524
▁pat	-1525
▁করব	-1526
▁নাও	-1527
▁Plan	-1528
▁card	-1529
▁chai	-1530
▁Phone	-1531
▁talked	-1532
▁interest	-1533
arly	-1534
hile	-1535
rank	-1536
▁khe	-1537
▁run	-1538
▁মান	-1539
▁They	-1540
▁save	-1541
▁tease	-1542
▁routine	-1543
▁medicine	-1544
▁schedule	-1545
elt	-1546
lid	-1547
▁গা	-1548
য়াম	-1549
▁cut	-1550
▁env	-1551
▁কার	-1552
pport	-1553
▁tech	-1554
▁পাঠাও	-1555
▁assign	-1556
▁sweets	-1557
▁দুপুরে	-1558
▁বাজারে	-1559
ডি	-1560
▁V	-1561
ink	-1562
ull	-1563
▁New	-1564
▁gro	-1565
▁urg	-1566
▁লাগ	-1567
▁মাঝে	-1568
▁short	-1569
▁ছাড়া	-1570
▁prepar	-1571
ironment	-1572
▁arrived	-1573
▁bargain	-1574
▁collect	-1575
▁payment	-1576
▁environment	-1577
ys	-1578
vor	-1579
▁De	-1580
▁উৎ	-1581
▁Stu	-1582
▁bec	-1583
▁calm	-1584
▁safe	-1585
▁Start	-1586
▁going	-1587
▁learn	-1588
▁plant	-1589
▁snacks	-1590
▁যাওয়া	-1591
▁colleagues	-1592
ail	-1593
ারাপ	-1594
▁our	-1595
▁অনু	-1596
▁পরে	-1597
arden	-1598
inema	-1599
▁buzz	-1600
▁felt	-1601
▁সবজি	-1602
morrow	-1603
▁makes	-1604
▁route	-1605
▁খারাপ	-1606
▁দিনের	-1607
▁Bondhu	-1608
▁laughs	-1609
▁things	-1610
▁journey	-1611
জন	-1612
ens	-1613
ier	-1614
সেল	-1615
ষ্কার	-1616
▁join	-1617
▁এসেছে	-1618
▁should	-1619
▁working	-1620
▁পার্সেল	-1621
no	-1622
▁Bu	-1623
▁পছ	-1624
icks	-1625
▁Swe	-1626
▁des	-1627
▁dri	-1628
▁rea	-1629
▁Send	-1630
▁exam	-1631
▁shan	-1632
alking	-1633
▁Wrong	-1634
▁arran	-1635
▁keeps	-1636
▁সেখানে	-1637
▁completed	-1638
▁experience	-1639
▁preparation	-1640
any	-1641
hor	-1642
ত্য	-1643
▁কল	-1644
cher	-1645
vers	-1646
ষ্টা	-1647
▁সাজ	-1648
▁prof	-1649
▁send	-1650
▁সন্ধ	-1651
▁manag	-1652
▁urgent	-1653
▁পরিষ্কার	-1654
▁confidently	-1655
জ্	-1656
দ্	-1657
got	-1658
ময়	-1659
াতে	-1660
▁আড	-1661
▁টি	-1662
ount	-1663
▁old	-1664
▁এতে	-1665
▁বাস	-1666
▁ভুল	-1667
uture	-1668
▁high	-1669
▁niye	-1670
▁আগাম	-1671
▁ক্লা	-1672
▁place	-1673
▁stuck	-1674
▁garden	-1675
▁wallet	-1676
▁চেষ্টা	-1677
▁tomorrow	-1678
ka	-1679
পর	-1680
ata	-1681
har	-1682
ষ্ট	-1683
▁ru	-1684
cess	-1685
ichu	-1686
ound	-1687
েয়ে	-1688
▁tak	-1689
▁যাও	-1690
elebr	-1691
কল্পনা	-1692
▁again	-1693
▁plans	-1694
▁আগামী	-1695
▁shanti	-1696
▁helpful	-1697
▁confirmed	-1698
▁পরিকল্পনা	-1699
cy	-1700
ety	-1701
ীয়	-1702
ৃতি	-1703
▁শহ	-1704
▁flo	-1705
▁kaj	-1706
▁mot	-1707
▁সাই	-1708
▁Call	-1709
▁give	-1710
▁যাতে	-1711
▁chaos	-1712
▁saves	-1713
▁jogging	-1714
▁perfect	-1715
di	-1716
hi	-1717
ym	-1718
ঁচ	-1719
▁op	-1720
িকার	-1721
▁Off	-1722
▁jon	-1723
▁খেলা	-1724
▁তাজা	-1725
▁দেরি	-1726
▁drank	-1727
▁picnic	-1728
▁Meeting	-1729
▁improve	-1730
▁বিশ্রাম	-1731
▁assignment	-1732
dd	-1733
wa	-1734
ene	-1735
ালি	-1736
েলি	-1737
▁Sp	-1738
▁fi	-1739
ison	-1740
ital	-1741
take	-1742
▁চলে	-1743
▁পরী	-1744
▁fill	-1745
▁guru	-1746
▁cinema	-1747
▁shared	-1748
▁receive	-1749
▁updated	-1750
▁something	-1751
av	-1752
্চ	-1753
gle	-1754
ita	-1755
rit	-1756
work	-1757
▁bal	-1758
▁det	-1759
ating	-1760
▁best	-1761
▁অনলাই	-1762
▁korchen	-1763
▁ব্যায়াম	-1764
▁enjoyable	-1765
▁interesting	-1766
dr	-1767
oid	-1768
ডিও	-1769
ন্ড	-1770
য়ই	-1771
োর্	-1772
▁সি	-1773
dget	-1774
ming	-1775
▁খুঁ	-1776
▁গাছ	-1777
▁বাই	-1778
▁clot	-1779
itchen	-1780
▁photo	-1781
▁taste	-1782
▁করবেন	-1783
▁করেছে	-1784
▁dessert	-1785
▁weather	-1786
▁weekend	-1787
▁মিষ্টির	-1788
দ্ধ	-1789
▁ফল	-1790
cery	-1791
icip	-1792
ক্তি	-1793
▁cam	-1794
▁গান	-1795
elect	-1796
▁Boss	-1797
▁mode	-1798
▁shun	-1799
▁well	-1800
▁দেখে	-1801
attery	-1802
▁Kintu	-1803
▁korbo	-1804
▁taken	-1805
▁trend	-1806
▁watch	-1807
▁support	-1808
ipe	-1809
▁Te	-1810
▁যে	-1811
ough	-1812
ভারি	-1813
▁But	-1814
▁gam	-1815
ccess	-1816
▁spot	-1817
▁সুস্	-1818
▁their	-1819
▁tried	-1820
▁ভিডিও	-1821
েলিভারি	-1822
▁packed	-1823
▁special	-1824
▁internet	-1825
chi	-1826
han	-1827
lor	-1828
ock	-1829
oga	-1830
▁Ek	-1831
▁Ex	-1832
▁পু	-1833
▁Can	-1834
▁bor	-1835
▁job	-1836
▁মতো	-1837
▁যেন	-1838
▁শুভ	-1839
▁fair	-1840
▁find	-1841
▁আড্ড	-1842
▁তাকে	-1843
▁ভিড়	-1844
icious	-1845
isoner	-1846
▁কাজের	-1847
▁দেখতে	-1848
▁Office	-1849
▁khabar	-1850
▁battery	-1851
▁prisoner	-1852
▁ডেলিভারি	-1853
▁delicious	-1854
রম	-1855
read	-1856
▁giv	-1857
▁শেখ	-1858
▁স্ব	-1859
aster	-1860
ption	-1861
▁Ajke	-1862
▁সত্য	-1863
▁fully	-1864
▁often	-1865
▁would	-1866
▁eating	-1867
▁informed	-1868
িই	-1869
ins	-1870
tra	-1871
▁Mor	-1872
▁che	-1873
▁pur	-1874
▁ফুচ	-1875
▁Book	-1876
▁Moja	-1877
▁must	-1878
▁দেখো	-1879
▁শিকার	-1880
▁সত্যিই	-1881
▁Morning	-1882
▁reading	-1883
▁thakben	-1884
▁waiting	-1885
▁particip	-1886
▁সাজিয়েছি	-1887
▁maintained	-1888
িখ	-1889
haw	-1890
ian	-1891
omm	-1892
োনো	-1893
▁dr	-1894
▁ডা	-1895
▁মু	-1896
ller	-1897
ward	-1898
▁Fix	-1899
▁him	-1900
▁বসে	-1901
▁Grab	-1902
▁cuts	-1903
▁sweet	-1904
▁দোকান	-1905
ickshaw	-1906
▁celebr	-1907
▁future	-1908
▁returned	-1909
ুধ	-1910
ike	-1911
vis	-1912
তের	-1913
mber	-1914
oint	-1915
ন্তি	-1916
▁শুন	-1917
▁lock	-1918
▁pers	-1919
▁stat	-1920
▁বেশি	-1921
▁helps	-1922
▁hotel	-1923
▁kichu	-1924
▁proble	-1925
▁Evening	-1926
▁updates	-1927
▁পেয়েছি	-1928
bb	-1929
kes	-1930
▁Co	-1931
ural	-1932
▁Bus	-1933
▁উত্	-1934
▁ধরো	-1935
▁স্ট	-1936
uring	-1937
্যায়	-1938
▁even	-1939
▁rush	-1940
▁রাজা	-1941
▁local	-1942
▁পছন্দ	-1943
▁success	-1944
▁প্রায়ই	-1945
ds	-1946
bes	-1947
oot	-1948
তাস	-1949
ত্র	-1950
▁পো	-1951
▁হও	-1952
mpty	-1953
্যাপ	-1954
▁Res	-1955
▁রাতে	-1956
▁Snack	-1957
▁extra	-1958
▁games	-1959
▁natun	-1960
▁spice	-1961
▁spicy	-1962
▁বাতাস	-1963
▁called	-1964
▁emails	-1965
▁grocery	-1966
▁without	-1967
ification	-1968
ষণ	-1969
ুষ	-1970
fit	-1971
ling	-1972
্যাক	-1973
▁bad	-1974
▁তুল	-1975
aking	-1976
▁Many	-1977
▁তথ্য	-1978
▁হাসে	-1979
▁Catch	-1980
▁avoid	-1981
▁smart	-1982
▁বাইরে	-1983
▁মানুষ	-1984
▁দেওয়া	-1985
▁clothes	-1986
▁kitchen	-1987
▁planned	-1988
▁documents	-1989
olk	-1990
ার্	-1991
ater	-1992
ible	-1993
ival	-1994
ocus	-1995
roll	-1996
ycle	-1997
্রতি	-1998
▁gym	-1999
▁lit	-2000
▁pan	-2001
▁উঠে	-2002
▁তাই	-2003
▁fuel	-2004
▁shob	-2005
▁messag	-2006
▁person	-2007
▁select	-2008
▁cleaned	-2009
▁manager	-2010
▁sharing	-2011
▁অনলাইনে	-2012
▁learning	-2013
ণে	-2014
সব	-2015
llo	-2016
টের	-2017
ন্ন	-2018
ুলে	-2019
্রম	-2020
▁ke	-2021
▁ভা	-2022
hore	-2023
ware	-2024
কৃতি	-2025
▁App	-2026
▁Now	-2027
▁acc	-2028
anced	-2029
▁When	-2030
▁cook	-2031
▁hang	-2032
▁inst	-2033
edding	-2034
▁koren	-2035
▁finish	-2036
▁receiv	-2037
▁resear	-2038
▁teacher	-2039
era	-2040
hil	-2041
ute	-2042
তেজ	-2043
▁gi	-2044
▁গে	-2045
▁Buy	-2046
▁dra	-2047
▁hit	-2048
▁এলে	-2049
▁Then	-2050
▁easy	-2051
▁room	-2052
▁yoga	-2053
▁event	-2054
▁gives	-2055
▁noted	-2056
▁notun	-2057
▁stret	-2058
▁তাদের	-2059
▁budget	-2060
▁timely	-2061
কর্	-2062
বাস	-2063
▁An	-2064
▁ধর	-2065
▁ফো	-2066
goti	-2067
ক্ষণ	-2068
য়ের	-2069
▁Sha	-2070
▁গরম	-2071
ction	-2072
▁Stay	-2073
▁disc	-2074
▁early	-2075
▁pract	-2076
▁songs	-2077
▁advice	-2078
▁finalize	-2079
▁research	-2080
avy	-2081
dle	-2082
rap	-2083
োনা	-2084
▁ধু	-2085
book	-2086
ical	-2087
▁Pay	-2088
▁big	-2089
▁pos	-2090
▁wiz	-2091
gress	-2092
ished	-2093
▁days	-2094
▁flow	-2095
▁tour	-2096
▁used	-2097
▁favor	-2098
▁panic	-2099
▁spent	-2100
▁store	-2101
▁commun	-2102
▁having	-2103
▁stalls	-2104
▁trying	-2105
▁wizard	-2106
▁অফিসের	-2107
ointment	-2108
▁cashier	-2109
▁chatted	-2110
▁পরীক্ষা	-2111
▁listened	-2112
▁progress	-2113
▁received	-2114
▁সন্ধ্যায়	-2115
im	-2116
kha	-2117
pic	-2118
দাম	-2119
দার	-2120
াস্	-2121
fore	-2122
less	-2123
্যান	-2124
▁bro	-2125
▁jay	-2126
▁ফুল	-2127
▁যাব	-2128
ition	-2129
▁Ekta	-2130
▁Miss	-2131
▁char	-2132
▁news	-2133
▁noon	-2134
▁slow	-2135
▁soft	-2136
▁বাঁচ	-2137
▁মেসে	-2138
▁decis	-2139
▁table	-2140
▁little	-2141
▁purcha	-2142
▁playing	-2143
▁সম্প্রতি	-2144
ss	-2145
ংশ	-2146
প্	-2147
ual	-2148
্রে	-2149
▁খো	-2150
eper	-2151
hool	-2152
ople	-2153
urry	-2154
রুরি	-2155
িনিস	-2156
▁Bar	-2157
▁Con	-2158
▁আগে	-2159
▁একট	-2160
▁কাট	-2161
▁গ্র	-2162
▁জাম	-2163
lides	-2164
thday	-2165
▁cour	-2166
▁when	-2167
▁liked	-2168
▁wrong	-2169
▁জরুরি	-2170
▁জিনিস	-2171
ressure	-2172
▁people	-2173
▁status	-2174
▁Traffic	-2175
▁information	-2176
sw	-2177
ict	-2178
use	-2179
▁লে	-2180
▁Has	-2181
▁har	-2182
▁low	-2183
▁mil	-2184
▁rel	-2185
▁war	-2186
▁আরও	-2187
▁নেই	-2188
ivity	-2189
▁chan	-2190
▁free	-2191
▁resp	-2192
▁seat	-2193
▁soon	-2194
▁thri	-2195
▁মনকে	-2196
keeper	-2197
▁bollo	-2198
▁found	-2199
▁heavy	-2200
▁reach	-2201
▁shops	-2202
▁vibes	-2203
▁দরদাম	-2204
▁advent	-2205
▁before	-2206
▁camera	-2207
▁played	-2208
▁নেওয়া	-2209
▁hoyeche	-2210
▁pressure	-2211
▁দিয়েছেন	-2212
▁stretching	-2213
▁notification	-2214
als	-2215
omb	-2216
য়ো	-2217
▁Go	-2218
▁hy	-2219
▁তো	-2220
ased	-2221
rior	-2222
পোর্	-2223
িকনি	-2224
▁cap	-2225
▁let	-2226
▁pop	-2227
▁sty	-2228
▁Hasi	-2229
▁bicy	-2230
▁push	-2231
▁self	-2232
▁taxi	-2233
▁they	-2234
▁turn	-2235
▁একটু	-2236
▁নষ্ট	-2237
rouble	-2238
▁focus	-2239
▁looks	-2240
▁filled	-2241
▁negoti	-2242
▁recipe	-2243
▁problem	-2244
▁reached	-2245
▁ভালোবাস	-2246
িপ	-2247
oke	-2248
বর্	-2249
ভোগ	-2250
▁টা	-2251
ines	-2252
swer	-2253
▁Ret	-2254
▁boy	-2255
▁ens	-2256
▁ris	-2257
▁ঝাল	-2258
▁দাম	-2259
▁বের	-2260
▁Work	-2261
▁foot	-2262
▁pick	-2263
▁said	-2264
▁tast	-2265
▁খুশি	-2266
▁চায়	-2267
▁ভ্রম	-2268
▁chall	-2269
▁chilo	-2270
▁উপভোগ	-2271
venient	-2272
▁হাঁটতে	-2273
▁enjoying	-2274
ac	-2275
nd	-2276
ono	-2277
য়ক	-2278
▁Po	-2279
▁Sc	-2280
জেক্	-2281
▁sec	-2282
▁sun	-2283
▁tre	-2284
▁who	-2285
▁অংশ	-2286
▁বলল	-2287
▁যদি	-2288
peror	-2289
table	-2290
▁auto	-2291
▁dull	-2292
▁fish	-2293
▁flat	-2294
▁sent	-2295
▁এরপর	-2296
▁চ্যা	-2297
▁shake	-2298
▁shoes	-2299
▁while	-2300
▁আড্ডা	-2301
▁নায়ক	-2302
▁addict	-2303
▁thrill	-2304
▁রিপোর্	-2305
essional	-2306
▁emperor	-2307
▁favorite	-2308
▁festival	-2309
▁confidence	-2310
▁relaxation	-2311
▁professional	-2312
hy	-2313
শন	-2314
gul	-2315
izz	-2316
ool	-2317
কাশ	-2318
▁Ha	-2319
Eita	-2320
ills	-2321
ried	-2322
tain	-2323
ures	-2324
▁bed	-2325
▁পেট	-2326
▁মনো	-2327
lease	-2328
▁fare	-2329
▁gift	-2330
▁hobb	-2331
▁seen	-2332
▁তারা	-2333
▁avail	-2334
▁blast	-2335
▁dance	-2336
▁small	-2337
▁spend	-2338
▁where	-2339
▁রাস্ত	-2340
▁হওয়া	-2341
▁Return	-2342
▁booked	-2343
▁course	-2344
▁prices	-2345
▁সবাইকে	-2346
▁followed	-2347
▁software	-2348
▁available	-2349
▁appointment	-2350
sh	-2351
▁br	-2352
ball	-2353
corn	-2354
mple	-2355
ooze	-2356
time	-2357
▁bot	-2358
▁min	-2359
▁too	-2360
▁আলা	-2361
▁কবি	-2362
▁ফের	-2363
▁শিখ	-2364
hilen	-2365
▁Kolk	-2366
▁cont	-2367
▁into	-2368
▁size	-2369
▁খুঁজ	-2370
▁মিলে	-2371
▁given	-2372
▁hobby	-2373
▁memor	-2374
▁shuru	-2375
▁tired	-2376
▁খেয়ে	-2377
▁বলেছি	-2378
ultural	-2379
▁intake	-2380
▁plants	-2381
▁slides	-2382
▁Kolkata	-2383
▁bicycle	-2384
▁বাড়িতে	-2385
▁arranged	-2386
▁messages	-2387
▁purchase	-2388
Fi	-2389
জাজ	-2390
ুকর	-2391
▁sw	-2392
itor	-2393
izza	-2394
▁mag	-2395
▁sky	-2396
harma	-2397
rough	-2398
য়োজন	-2399
▁head	-2400
▁risk	-2401
▁stop	-2402
▁বন্দি	-2403
▁মেজাজ	-2404
▁cancel	-2405
▁comfor	-2406
▁timing	-2407
▁waiter	-2408
▁হওয়ার	-2409
▁quickly	-2410
▁thought	-2411
▁প্রস্তুত	-2412
▁interview	-2413
▁successful	-2414
ao	-2415
um	-2416
োশ	-2417
্ল	-2418
Tok	-2419
ise	-2420
the	-2421
ধ্য	-2422
যোগ	-2423
ালা	-2424
▁Wi	-2425
▁lu	-2426
▁pu	-2427
কিছু	-2428
▁Tik	-2429
▁bas	-2430
▁জাদ	-2431
▁পুর	-2432
essor	-2433
▁diet	-2434
▁hard	-2435
▁milk	-2436
▁moja	-2437
▁rock	-2438
ctions	-2439
▁Group	-2440
▁calls	-2441
▁color	-2442
▁cream	-2443
▁needs	-2444
▁super	-2445
▁পরিবে	-2446
▁TikTok	-2447
▁crowds	-2448
▁missed	-2449
▁জাদুকর	-2450
▁সবকিছু	-2451
▁football	-2452
▁কো	-2453
▁ঠা	-2454
▁রু	-2455
This	-2456
yani	-2457
বর্ত	-2458
▁Get	-2459
▁Par	-2460
▁Rep	-2461
▁mys	-2462
▁কমে	-2463
▁জ্ব	-2464
▁বাগ	-2465
ester	-2466
▁Face	-2467
▁away	-2468
▁gone	-2469
▁grab	-2470
▁happ	-2471
▁item	-2472
▁open	-2473
▁plat	-2474
▁rain	-2475
▁ট্রা	-2476
urning	-2477
▁bhore	-2478
▁topic	-2479
▁under	-2480
▁using	-2481
harmacy	-2482
ination	-2483
▁looked	-2484
▁college	-2485
▁looking	-2486
▁relaxed	-2487
▁রান্নাঘ	-2488
▁Facebook	-2489
▁traveled	-2490
▁convenient	-2491
ci	-2492
ali	-2493
ank	-2494
mon	-2495
unk	-2496
কেল	-2497
▁gl	-2498
▁চল	-2499
▁বস	-2500
cent	-2501
hoto	-2502
iral	-2503
onde	-2504
▁Are	-2505
▁Chu	-2506
▁fan	-2507
▁ছড়	-2508
▁ছোট	-2509
▁লাই	-2510
ক্তার	-2511
▁Read	-2512
▁cost	-2513
▁ektu	-2514
▁hosp	-2515
▁pani	-2516
▁Happy	-2517
▁Track	-2518
▁Train	-2519
▁money	-2520
▁পিকনি	-2521
▁Shobai	-2522
▁Social	-2523
▁anonde	-2524
▁videos	-2525
▁পার্কে	-2526
▁শুনেছি	-2527
▁Bargain	-2528
▁ডাক্তার	-2529
▁প্রজেক্	-2530
▁hospital	-2531
▁মিটিংয়ে	-2532
gn	-2533
ps	-2534
থি	-2535
edy	-2536
ich	-2537
iet	-2538
র্ক	-2539
িংহ	-2540
োরা	-2541
ails	-2542
ckle	-2543
fety	-2544
here	-2545
iles	-2546
just	-2547
nect	-2548
চ্ছা	-2549
ন্টে	-2550
▁cor	-2551
▁don	-2552
▁ghu	-2553
▁val	-2554
▁পাও	-2555
▁বান	-2556
েচ্ছা	-2557
▁Some	-2558
▁cool	-2559
▁lion	-2560
▁lost	-2561
▁meme	-2562
▁কাছে	-2563
▁সিংহ	-2564
▁Stuck	-2565
▁jaben	-2566
▁tasty	-2567
▁দরকার	-2568
▁school	-2569
▁strong	-2570
▁washed	-2571
▁বন্ধুর	-2572
esterday	-2573
▁Chuckle	-2574
▁details	-2575
▁getting	-2576
▁দিয়েছে	-2577
▁রিপোর্ট	-2578
▁platform	-2579
▁দোকানদার	-2580
▁শুভেচ্ছা	-2581
▁notifications	-2582
তর	-2583
isf	-2584
র্য	-2585
শ্য	-2586
ষুধ	-2587
সাহ	-2588
▁পে	-2589
▁হো	-2590
cell	-2591
ffer	-2592
lect	-2593
mand	-2594
ায়ক	-2595
▁Add	-2596
▁Low	-2597
▁fir	-2598
▁ice	-2599
▁nap	-2600
▁nin	-2601
▁pab	-2602
▁অপে	-2603
▁জমে	-2604
▁dist	-2605
▁hour	-2606
▁meet	-2607
▁note	-2608
▁জামা	-2609
▁তিনি	-2610
▁নিজে	-2611
▁crash	-2612
▁ঘুমের	-2613
▁dishes	-2614
▁excite	-2615
▁lagche	-2616
▁magnet	-2617
▁satisf	-2618
▁running	-2619
▁technic	-2620
▁pharmacy	-2621
▁planning	-2622
▁adventure	-2623
▁collected	-2624
▁confident	-2625
▁shopkeeper	-2626
দে	-2627
মন	-2628
ির	-2629
ang	-2630
ker	-2631
তান	-2632
মের	-2633
শ্চ	-2634
▁Ma	-2635
▁vo	-2636
▁ঘর	-2637
▁চি	-2638
chka	-2639
tein	-2640
চ্ছি	-2641
▁ate	-2642
▁how	-2643
▁kin	-2644
omach	-2645
▁Late	-2646
▁love	-2647
▁nice	-2648
▁ফোনে	-2649
▁মেলা	-2650
▁শহরে	-2651
▁floor	-2652
▁jokes	-2653
▁kache	-2654
▁quest	-2655
▁viral	-2656
▁উত্তর	-2657
▁Follow	-2658
▁arrive	-2659
▁easier	-2660
▁upload	-2661
▁monitor	-2662
▁perform	-2663
▁stomach	-2664
▁trainer	-2665
▁ঠিকভাবে	-2666
▁discount	-2667
▁participate	-2668
ien	-2669
▁ga	-2670
ason	-2671
auce	-2672
ider	-2673
lied	-2674
ৃশ্য	-2675
্যাল	-2676
▁One	-2677
▁Pre	-2678
▁saw	-2679
▁বাঘ	-2680
▁যোগ	-2681
itive	-2682
▁Mood	-2683
▁Shop	-2684
▁bike	-2685
▁lage	-2686
▁test	-2687
▁wear	-2688
▁zomb	-2689
▁টাকা	-2690
▁বইটি	-2691
▁could	-2692
▁effic	-2693
▁jonno	-2694
▁metro	-2695
▁might	-2696
▁pizza	-2697
▁prior	-2698
▁Parcel	-2699
▁adjust	-2700
▁bondhu	-2701
▁diffic	-2702
▁flight	-2703
▁helped	-2704
▁hangout	-2705
▁trouble	-2706
▁walking	-2707
▁rickshaw	-2708
▁submitted	-2709
ঠা	-2710
ীব	-2711
iew	-2712
ord	-2713
ote	-2714
জের	-2715
বাদ	-2716
▁Ro	-2717
▁জি	-2718
ever	-2719
ডিয়	-2720
সময়	-2721
▁deb	-2722
▁sad	-2723
▁sit	-2724
▁খোঁ	-2725
▁তখন	-2726
▁বড়	-2727
▁মাছ	-2728
eeing	-2729
iness	-2730
ultan	-2731
▁Cash	-2732
▁Jodi	-2733
▁able	-2734
▁face	-2735
▁jabe	-2736
▁kono	-2737
▁ruin	-2738
▁view	-2739
chhilo	-2740
▁Inter	-2741
▁decor	-2742
▁first	-2743
▁paper	-2744
▁tiger	-2745
▁voice	-2746
▁উৎসাহ	-2747
▁ট্রেন	-2748
▁ধরনের	-2749
▁প্যাক	-2750
▁zombie	-2751
▁পড়েছি	-2752
▁পরিবেশ	-2753
▁সাইকেল	-2754
▁connect	-2755
▁outside	-2756
▁process	-2757
▁through	-2758
▁balanced	-2759
▁increase	-2760
▁studying	-2761
▁difficult	-2762
▁finalized	-2763
▁increased	-2764
▁মিটিংয়ের	-2765
▁excitement	-2766
▁comfortable	-2767
lu	-2768
রণ	-2769
lam	-2770
টার	-2771
▁Su	-2772
▁fr	-2773
▁বৃ	-2774
lish	-2775
port	-2776
▁ach	-2777
▁inv	-2778
▁put	-2779
▁কখন	-2780
round	-2781
ন্টার	-2782
▁bank	-2783
▁expl	-2784
▁joke	-2785
▁kome	-2786
▁tran	-2787
▁what	-2788
▁creat	-2789
▁drama	-2790
▁ninja	-2791
▁storm	-2792
▁উপহার	-2793
▁করলাম	-2794
▁নিশ্চ	-2795
▁Health	-2796
▁confus	-2797
▁joyful	-2798
▁কাটানো	-2799
▁সবসময়	-2800
▁fitness	-2801
▁impress	-2802
▁popcorn	-2803
▁পৌঁছেছি	-2804
▁attended	-2805
▁positive	-2806
ib	-2807
গল	-2808
হে	-2809
cri	-2810
টকে	-2811
▁ag	-2812
▁ge	-2813
▁ju	-2814
▁গত	-2815
alke	-2816
ante	-2817
jker	-2818
বাদু	-2819
▁Eid	-2820
▁dey	-2821
▁won	-2822
▁প্ল	-2823
▁ফির	-2824
▁সুল	-2825
▁fire	-2826
▁heat	-2827
▁insp	-2828
▁kind	-2829
▁libr	-2830
▁pics	-2831
▁ring	-2832
▁tens	-2833
▁woke	-2834
▁অনুভ	-2835
▁আটকে	-2836
▁রাখা	-2837
াস্থ্য	-2838
▁Study	-2839
▁drink	-2840
▁gifts	-2841
▁motiv	-2842
▁speed	-2843
▁পোস্ট	-2844
▁হাঁটা	-2845
▁bottle	-2846
▁sultan	-2847
▁মনোযোগ	-2848
▁সুলতান	-2849
▁convers	-2850
▁tension	-2851
▁underst	-2852
▁birthday	-2853
▁cultural	-2854
▁সুস্বাদু	-2855
▁রান্নাঘরে	-2856
▁স্বাস্থ্য	-2857
▁technician	-2858
▁দোকানদারের	-2859
▁conversation	-2860
air	-2861
hon	-2862
und	-2863
চিত	-2864
ৌড়	-2865
▁Bo	-2866
▁je	-2867
▁po	-2868
▁উঠ	-2869
ader	-2870
itch	-2871
নাকে	-2872
স্তা	-2873
ায়গ	-2874
▁Goo	-2875
▁bur	-2876
▁gul	-2877
▁ide	-2878
▁জীব	-2879
phone	-2880
▁Auto	-2881
▁Dead	-2882
▁Mess	-2883
▁bond	-2884
▁ever	-2885
▁hung	-2886
▁pass	-2887
▁wash	-2888
▁আবার	-2889
▁কোথা	-2890
▁দৌড়	-2891
▁পড়ে	-2892
স্টুরে	-2893
▁cycle	-2894
▁empty	-2895
▁goals	-2896
▁pictu	-2897
▁sweat	-2898
▁thake	-2899
▁ক্ষুধ	-2900
▁জায়গ	-2901
▁ভিড়ে	-2902
cessary	-2903
▁Google	-2904
▁active	-2905
▁nature	-2906
▁street	-2907
▁আপনাকে	-2908
▁খাবারে	-2909
▁checkup	-2910
▁learned	-2911
▁প্ল্যান	-2912
▁Deadline	-2913
▁roadside	-2914
▁রেস্টুরে	-2915
▁returning	-2916
▁Restaurant	-2917
na	-2918
elo	-2919
put	-2920
sho	-2921
তিল	-2922
▁TV	-2923
▁Ti	-2924
▁দু	-2925
▁হি	-2926
chhe	-2927
▁For	-2928
▁cou	-2929
▁dig	-2930
▁tru	-2931
▁অভি	-2932
▁রেখ	-2933
orkar	-2934
unity	-2935
ন্দের	-2936
▁Beng	-2937
▁cafe	-2938
▁cons	-2939
▁fine	-2940
▁hagg	-2941
▁mall	-2942
▁ping	-2943
▁thik	-2944
▁আকাশ	-2945
▁ঘুরে	-2946
▁সতেজ	-2947
▁files	-2948
▁guide	-2949
▁input	-2950
▁tales	-2951
▁গ্রুপ	-2952
▁থাকবে	-2953
▁বাতিল	-2954
▁শক্তি	-2955
▁driver	-2956
▁instru	-2957
▁lights	-2958
▁outfit	-2959
▁snooze	-2960
▁weight	-2961
▁তুলেছি	-2962
▁মিডিয়	-2963
cription	-2964
▁Bengali	-2965
▁library	-2966
▁নিশ্চিত	-2967
▁download	-2968
▁korechen	-2969
ইল	-2970
erv	-2971
fer	-2972
tem	-2973
▁ডে	-2974
▁মো	-2975
hesh	-2976
host	-2977
পত্র	-2978
াঁড়	-2979
▁Cha	-2980
▁mis	-2981
▁pun	-2982
▁sur	-2983
▁sys	-2984
▁ver	-2985
▁zer	-2986
▁যান	-2987
▁সহজ	-2988
▁সোশ	-2989
centr	-2990
ggage	-2991
umber	-2992
▁Exam	-2993
▁Pick	-2994
▁Prep	-2995
▁line	-2996
▁riot	-2997
▁কাজে	-2998
▁খেতে	-2999
▁থাকা	-3000
▁প্রে	-3001
▁doing	-3002
▁ekhon	-3003
▁ghost	-3004
▁hurry	-3005
▁meals	-3006
▁shune	-3007
▁whole	-3008
▁অ্যাপ	-3009
▁থাকলে	-3010
▁পড়াশ	-3011
ন্টারনে	-3012
▁Taking	-3013
▁Travel	-3014
▁boring	-3015
▁design	-3016
▁dorkar	-3017
▁during	-3018
▁system	-3019
▁ফুচকার	-3020
▁সোশ্যাল	-3021
▁concentr	-3022
▁finished	-3023
▁improved	-3024
▁memories	-3025
▁watching	-3026
▁exercises	-3027
orn	-3028
ory	-3029
ডেট	-3030
ারে	-3031
▁Lo	-3032
▁Sm	-3033
ense	-3034
inic	-3035
iver	-3036
োরাঁ	-3037
▁Not	-3038
▁ase	-3039
▁bes	-3040
▁iss	-3041
▁ওঠে	-3042
▁কফি	-3043
▁চান	-3044
enger	-3045
ients	-3046
lectr	-3047
মেন্ট	-3048
য়েছি	-3049
▁ches	-3050
▁grow	-3051
▁খুবই	-3052
▁নিতে	-3053
ashion	-3054
ickets	-3055
▁later	-3056
▁level	-3057
▁shesh	-3058
▁stick	-3059
▁tough	-3060
▁আপডেট	-3061
▁রেস্ত	-3062
▁repair	-3063
▁result	-3064
▁safety	-3065
▁কোথায়	-3066
▁biryani	-3067
▁comment	-3068
▁document	-3069
▁ইন্টারনে	-3070
▁রেস্তোরাঁ	-3071
▁প্রজেক্টের	-3072
PS	-3073
oj	-3074
কর	-3075
ণ্	-3076
পদ	-3077
মী	-3078
aug	-3079
led	-3080
মতো	-3081
রাম	-3082
লেন	-3083
▁aw	-3084
ause	-3085
firm	-3086
ideo	-3087
rand	-3088
দ্ধা	-3089
মেইল	-3090
▁Bir	-3091
▁How	-3092
▁caf	-3093
▁pet	-3094
▁pol	-3095
▁shu	-3096
▁চুপ	-3097
▁যখন	-3098
aming	-3099
oints	-3100
yechi	-3101
কৃতিক	-3102
চ্ছিল	-3103
▁Ride	-3104
▁dewa	-3105
▁near	-3106
▁pabe	-3107
▁paid	-3108
▁খালি	-3109
▁ট্রে	-3110
▁পেয়	-3111
▁যেতে	-3112
▁সিনে	-3113
aughed	-3114
mplete	-3115
ritten	-3116
▁Video	-3117
▁While	-3118
▁amake	-3119
▁birds	-3120
▁bring	-3121
▁drive	-3122
▁match	-3123
▁punct	-3124
▁sauce	-3125
▁trees	-3126
▁verif	-3127
▁ইমেইল	-3128
▁করছেন	-3129
▁দাঁড়	-3130
▁ধুয়ে	-3131
▁নেবেন	-3132
▁ফুচকা	-3133
▁সুস্থ	-3134
▁হয়নি	-3135
▁Missed	-3136
▁expect	-3137
▁points	-3138
▁Confirm	-3139
▁focused	-3140
▁priorit	-3141
▁respond	-3142
▁reviews	-3143
▁stylish	-3144
▁challeng	-3145
▁decision	-3146
▁personal	-3147
▁পড়াশোনা	-3148
estination	-3149
▁questions	-3150
?”	-3151
bs	-3152
bor	-3153
ire	-3154
moy	-3155
yes	-3156
ছান	-3157
রাশ	-3158
arat	-3159
▁GPS	-3160
▁bit	-3161
▁cup	-3162
▁der	-3163
▁egg	-3164
▁hal	-3165
▁jib	-3166
▁rem	-3167
▁win	-3168
▁ঘাম	-3169
▁চাও	-3170
ivers	-3171
mbers	-3172
stall	-3173
yeche	-3174
্যাপে	-3175
▁dish	-3176
▁holo	-3177
▁path	-3178
▁redu	-3179
▁vegg	-3180
▁উচিত	-3181
▁একটা	-3182
▁Night	-3183
▁achie	-3184
▁দেবেন	-3185
▁প্রাত	-3186
▁ফোনের	-3187
▁বিছান	-3188
▁সহকর্	-3189
িয়েছেন	-3190
▁chesta	-3191
▁making	-3192
▁selfie	-3193
▁spices	-3194
▁wanted	-3195
▁পুরোনো	-3196
▁শান্তি	-3197
redients	-3198
▁Project	-3199
▁balance	-3200
▁install	-3201
▁luggage	-3202
▁members	-3203
▁refresh	-3204
▁wedding	-3205
▁কিছুক্ষণ	-3206
▁confusion	-3207
▁performance	-3208
of	-3209
বী	-3210
ces	-3211
dhu	-3212
irt	-3213
med	-3214
▁Ar	-3215
▁Cl	-3216
▁খব	-3217
away	-3218
imes	-3219
rect	-3220
reen	-3221
ত্রা	-3222
▁cra	-3223
▁net	-3224
▁van	-3225
▁এমন	-3226
▁এসে	-3227
▁গুছ	-3228
▁জমা	-3229
▁নথি	-3230
▁বলো	-3231
ental	-3232
enter	-3233
urity	-3234
দায়ক	-3235
বর্তী	-3236
▁Chat	-3237
▁Over	-3238
▁Post	-3239
▁bump	-3240
▁cold	-3241
▁cust	-3242
▁didn	-3243
▁once	-3244
▁sure	-3245
▁আসবে	-3246
▁কোনো	-3247
▁জানে	-3248
▁পড়ো	-3249
▁যাবে	-3250
▁quiet	-3251
▁করছিল	-3252
▁গতকাল	-3253
▁গাড়ি	-3254
▁burger	-3255
▁cooked	-3256
▁ensure	-3257
▁moment	-3258
▁outing	-3259
▁sparks	-3260
▁vanish	-3261
▁মেলায়	-3262
▁যাত্রা	-3263
▁সিনেমা	-3264
▁arrange	-3265
▁flowers	-3266
▁replied	-3267
▁visited	-3268
▁workout	-3269
▁পরবর্তী	-3270
▁সহকর্মী	-3271
▁practice	-3272
▁punctual	-3273
▁আনন্দময়	-3274
▁supportive	-3275
▁Presentation	-3276
▁communication	-3277
টস	-3278
েষ	-3279
igh	-3280
কিট	-3281
ক্স	-3282
▁si	-3283
▁ty	-3284
▁সং	-3285
▁সৌ	-3286
ests	-3287
omer	-3288
প্তা	-3289
▁Spe	-3290
▁ana	-3291
▁pla	-3292
▁আসে	-3293
▁জয়	-3294
▁মিস	-3295
▁সমস	-3296
ishti	-3297
liday	-3298
▁came	-3299
▁chil	-3300
▁eyes	-3301
▁hydr	-3302
▁kene	-3303
▁less	-3304
▁mean	-3305
▁sugg	-3306
▁চালা	-3307
▁তুলে	-3308
▁নিরা	-3309
▁ফেরত	-3310
ন্দর্য	-3311
▁fruit	-3312
▁geche	-3313
▁truly	-3314
▁কার্ড	-3315
▁গল্পে	-3316
▁শহরের	-3317
itation	-3318
▁Cancel	-3319
▁clinic	-3320
▁electr	-3321
▁myself	-3322
▁reason	-3323
▁খুঁজছি	-3324
▁বাগানে	-3325
▁ব্যস্ত	-3326
▁holiday	-3327
▁laughed	-3328
▁ক্ষুধার	-3329
▁location	-3330
▁meetings	-3331
▁সৌন্দর্য	-3332
▁Following	-3333
▁celebrate	-3334
▁colleague	-3335
▁exercised	-3336
▁medicines	-3337
▁reasonable	-3338
▁celebration	-3339
▁challenging	-3340
▁destination	-3341
কু	-3342
নো	-3343
শনে	-3344
▁eb	-3345
▁kh	-3346
▁দূ	-3347
bing	-3348
▁Fin	-3349
▁fla	-3350
▁sal	-3351
▁sou	-3352
▁str	-3353
▁ঘুর	-3354
▁ফাই	-3355
▁ভরে	-3356
ালিকা	-3357
▁Road	-3358
▁atta	-3359
▁bree	-3360
▁fail	-3361
▁gelo	-3362
▁guid	-3363
▁hand	-3364
▁here	-3365
▁main	-3366
▁stud	-3367
▁told	-3368
▁আলাপ	-3369
▁কখনও	-3370
▁গেলে	-3371
▁ফিকে	-3372
▁রাখে	-3373
▁Sweat	-3374
▁ebong	-3375
▁email	-3376
▁jonne	-3377
▁khete	-3378
▁ট্রিপ	-3379
▁বাঁচে	-3380
▁ভ্রমণ	-3381
▁সপ্তা	-3382
▁router	-3383
▁shudhu	-3384
▁taking	-3385
▁খেলেছি	-3386
▁তালিকা	-3387
▁সিদ্ধা	-3388
▁boosted	-3389
▁correct	-3390
▁explore	-3391
▁protein	-3392
▁suggest	-3393
▁অপেক্ষা	-3394
▁গুছিয়ে	-3395
▁Checking	-3396
▁comments	-3397
▁pictures	-3398
▁রাস্তায়	-3399
▁necessary	-3400
▁ভালোবাসেন	-3401
▁productive	-3402
▁সহকর্মীদের	-3403
▁রেস্টুরেন্টে	-3404
▁concentration	-3405
চা	-3406
টপ	-3407
দা	-3408
log	-3409
মান	-3410
েনু	-3411
▁Pu	-3412
▁sl	-3413
▁tu	-3414
▁রো	-3415
free	-3416
স্থা	-3417
ানোর	-3418
্যার	-3419
▁Car	-3420
▁Got	-3421
▁Pic	-3422
▁ing	-3423
▁its	-3424
▁poe	-3425
▁ঝড়	-3426
▁ধরে	-3427
▁বিষ	-3428
▁রিক	-3429
ative	-3430
ident	-3431
iency	-3432
iting	-3433
ধ্যমে	-3434
▁brou	-3435
▁cake	-3436
▁data	-3437
▁ghum	-3438
▁half	-3439
▁reel	-3440
▁sing	-3441
▁user	-3442
▁ক্যা	-3443
▁জ্যা	-3444
▁মেনু	-3445
▁শুনে	-3446
▁স্টে	-3447
্যাপটপ	-3448
▁feast	-3449
▁juice	-3450
▁river	-3451
▁আজকের	-3452
▁দৃশ্য	-3453
▁পৌঁছে	-3454
omplete	-3455
reaming	-3456
▁Report	-3457
▁attack	-3458
▁breeze	-3459
▁kharap	-3460
▁placed	-3461
▁trends	-3462
▁সমস্যা	-3463
▁Wedding	-3464
▁because	-3465
▁booking	-3466
▁brought	-3467
▁program	-3468
▁tickets	-3469
▁চেয়েছি	-3470
▁মাধ্যমে	-3471
▁ল্যাপটপ	-3472
▁সপ্তাহে	-3473
▁disaster	-3474
▁organize	-3475
▁আগামীকাল	-3476
▁happiness	-3477
▁impressed	-3478
▁সিদ্ধান্ত	-3479
▁ingredients	-3480
bi	-3481
ষা	-3482
ari	-3483
ete	-3484
gar	-3485
ife	-3486
lls	-3487
ক্ত	-3488
ালে	-3489
্রি	-3490
▁As	-3491
▁gr	-3492
anti	-3493
iced	-3494
isha	-3495
urse	-3496
গ্রা	-3497
▁All	-3498
▁Din	-3499
▁Hot	-3500
▁Jay	-3501
▁Let	-3502
▁Out	-3503
▁Tar	-3504
▁adv	-3505
▁ann	-3506
▁aro	-3507
▁art	-3508
▁ask	-3509
▁lif	-3510
▁map	-3511
▁tai	-3512
▁কাপ	-3513
▁চাল	-3514
▁রবী	-3515
ights	-3516
ন্দ্র	-3517
▁Comm	-3518
▁Onek	-3519
▁ball	-3520
▁eggs	-3521
▁move	-3522
▁roof	-3523
▁scen	-3524
▁such	-3525
▁zero	-3526
▁করবে	-3527
▁জিজ্	-3528
▁দিনে	-3529
▁হিরো	-3530
action	-3531
িয়েছে	-3532
▁Ajker	-3533
▁Tease	-3534
▁chill	-3535
▁inclu	-3536
▁nurse	-3537
▁other	-3538
▁ঠান্ড	-3539
▁দেখুন	-3540
▁মেসেজ	-3541
▁লাগেজ	-3542
▁answer	-3543
▁brings	-3544
▁expens	-3545
▁flavor	-3546
▁hunter	-3547
▁korlam	-3548
▁orders	-3549
▁rested	-3550
▁thakle	-3551
▁Jayanti	-3552
▁account	-3553
▁crowded	-3554
▁delayed	-3555
▁peyeche	-3556
▁worried	-3557
▁সময়মতো	-3558
▁Shopping	-3559
▁guidance	-3560
▁patience	-3561
▁রবীন্দ্র	-3562
▁professor	-3563
▁connection	-3564
▁smartphone	-3565
io	-3566
li	-3567
খা	-3568
জর	-3569
▁u	-3570
arm	-3571
ato	-3572
cce	-3573
ela	-3574
kay	-3575
ken	-3576
que	-3577
set	-3578
unt	-3579
▁Sa	-3580
▁la	-3581
▁অপ	-3582
edic	-3583
grap	-3584
hela	-3585
khte	-3586
lace	-3587
rain	-3588
uter	-3589
utes	-3590
▁Our	-3591
▁She	-3592
▁box	-3593
▁dec	-3594
▁পাখ	-3595
▁ফেল	-3596
▁যাই	-3597
▁স্ক	-3598
ander	-3599
endar	-3600
iture	-3601
ledge	-3602
mates	-3603
▁Amra	-3604
▁Poet	-3605
▁boro	-3606
▁fote	-3607
▁scan	-3608
▁toys	-3609
▁অন্য	-3610
▁উৎসব	-3611
▁বাসে	-3612
biance	-3613
dition	-3614
▁Empty	-3615
▁Smart	-3616
▁Watch	-3617
▁leave	-3618
▁month	-3619
▁regul	-3620
▁ruins	-3621
▁stand	-3622
▁নিজের	-3623
▁বিমান	-3624
cellent	-3625
▁Answer	-3626
▁Dinner	-3627
▁During	-3628
▁Pohela	-3629
▁beauty	-3630
▁became	-3631
▁guests	-3632
▁haggle	-3633
▁korche	-3634
▁refres	-3635
▁starts	-3636
▁techno	-3637
▁useful	-3638
▁মেসেজে	-3639
urniture	-3640
▁minutes	-3641
▁mistake	-3642
▁veggies	-3643
▁ক্লান্ত	-3644
▁রান্নার	-3645
▁স্টেশনে	-3646
▁Rickshaw	-3647
▁security	-3648
▁uploaded	-3649
▁excellent	-3650
▁knowledge	-3651
▁ইন্টারনেট	-3652
▁classmates	-3653
▁efficiency	-3654
ano	-3655
ats	-3656
ips	-3657
sle	-3658
val	-3659
টসঅ	-3660
বাহ	-3661
বিষ	-3662
্লা	-3663
▁Bl	-3664
▁Fu	-3665
▁Hy	-3666
▁Se	-3667
▁wh	-3668
▁চো	-3669
▁জল	-3670
▁তে	-3671
▁শপ	-3672
▁সফ	-3673
list	-3674
reci	-3675
vies	-3676
vour	-3677
োটেল	-3678
▁Cra	-3679
▁Eat	-3680
▁Net	-3681
▁Set	-3682
▁her	-3683
▁তবে	-3684
▁হার	-3685
horer	-3686
right	-3687
under	-3688
কর্ষণ	-3689
ন্তীর	-3690
বিষ্য	-3691
▁Life	-3692
▁hasi	-3693
▁jodi	-3694
▁kick	-3695
▁live	-3696
▁pres	-3697
▁sear	-3698
▁snap	-3699
▁year	-3700
▁খুলে	-3701
▁ছাড়	-3702
▁নিয়	-3703
▁প্রশ	-3704
▁লেখা	-3705
▁সারা	-3706
ending	-3707
onight	-3708
য়াটসঅ	-3709
▁Cycle	-3710
▁Hotel	-3711
▁added	-3712
▁analy	-3713
▁asked	-3714
▁basis	-3715
▁beach	-3716
▁blank	-3717
▁close	-3718
▁fixed	-3719
▁issue	-3720
▁jibon	-3721
▁roads	-3722
▁still	-3723
▁works	-3724
▁কারণে	-3725
▁খেলার	-3726
▁বিষয়	-3727
▁হোটেল	-3728
vourite	-3729
▁Picnic	-3730
▁around	-3731
▁charge	-3732
▁movies	-3733
▁recent	-3734
▁shathe	-3735
▁storms	-3736
▁আকর্ষণ	-3737
▁জায়গা	-3738
▁জ্বালা	-3739
▁বাতাসে	-3740
▁ভবিষ্য	-3741
▁যাচ্ছি	-3742
▁রাস্তা	-3743
▁appreci	-3744
▁debates	-3745
▁instant	-3746
▁written	-3747
▁পেয়েছে	-3748
▁প্রকৃতি	-3749
▁Planning	-3750
▁activity	-3751
▁calendar	-3752
▁customer	-3753
▁জয়ন্তীর	-3754
▁প্রয়োজন	-3755
▁হোয়াটসঅ	-3756
▁dekhechen	-3757
▁favourite	-3758
▁satisfied	-3759
▁streaming	-3760
▁yesterday	-3761
▁decoration	-3762
▁negotiated	-3763
▁রেস্তোরাঁয়	-3764
bl	-3765
ট্	-3766
মি	-3767
্ন	-3768
ept	-3769
ior	-3770
গ্র	-3771
ম্প	-3772
ারী	-3773
▁ni	-3774
▁ইন	-3775
▁পথ	-3776
▁মস	-3777
▁শী	-3778
rise	-3779
োনার	-3780
▁Hag	-3781
▁awk	-3782
▁eta	-3783
▁mid	-3784
▁নজর	-3785
▁নয়	-3786
▁নাচ	-3787
cture	-3788
union	-3789
▁Park	-3790
▁Time	-3791
▁apps	-3792
▁bari	-3793
▁hist	-3794
▁host	-3795
▁opin	-3796
▁sale	-3797
▁vill	-3798
▁কিনা	-3799
▁ঘরের	-3800
▁নির্	-3801
▁বন্ধ	-3802
▁শপিং	-3803
▁শোনা	-3804
ommend	-3805
▁Kalke	-3806
▁Share	-3807
▁brain	-3808
▁chats	-3809
▁korun	-3810
▁poems	-3811
▁saved	-3812
▁কিনতে	-3813
▁গাছের	-3814
▁ঘুমাও	-3815
▁তারপর	-3816
▁লাগছে	-3817
▁শেখার	-3818
▁client	-3819
▁demand	-3820
▁gather	-3821
▁hassle	-3822
▁kothay	-3823
▁reduce	-3824
▁ruined	-3825
▁scroll	-3826
▁spread	-3827
▁কিছুটা	-3828
▁ছড়ায়	-3829
▁ঠান্ডা	-3830
▁নিরাপদ	-3831
▁ফিরেছি	-3832
▁ভ্রমণে	-3833
▁Reading	-3834
▁Sharing	-3835
▁airport	-3836
▁awkward	-3837
▁commute	-3838
▁forever	-3839
▁package	-3840
▁Internet	-3841
▁electric	-3842
▁reviewed	-3843
▁decisions	-3844
▁furniture	-3845
▁recommend	-3846
▁আকর্ষণীয়	-3847
▁হোয়াটসঅ্যাপে	-3848
আপ	-3849
পা	-3850
azr	-3851
ief	-3852
lly	-3853
owl	-3854
pon	-3855
চিং	-3856
ন্ম	-3857
মনা	-3858
ারণ	-3859
▁Sh	-3860
▁ko	-3861
▁গো	-3862
▁নগ	-3863
angu	-3864
ince	-3865
reak	-3866
rier	-3867
ট্টা	-3868
বেষণ	-3869
▁Vis	-3870
▁eff	-3871
▁gra	-3872
▁owl	-3873
▁ডকু	-3874
▁দুধ	-3875
▁নাশ	-3876
▁বুক	-3877
▁মিল	-3878
▁রাত	-3879
▁হলো	-3880
azing	-3881
azrul	-3882
getic	-3883
ional	-3884
ocket	-3885
ready	-3886
কাতার	-3887
দিনের	-3888
ুক্তি	-3889
▁Cook	-3890
▁Puja	-3891
▁Week	-3892
▁hall	-3893
▁hear	-3894
▁junk	-3895
▁sign	-3896
▁warm	-3897
▁wish	-3898
▁চলছে	-3899
▁দিকে	-3900
▁দিতে	-3901
ishakh	-3902
নাগুলো	-3903
্রেচিং	-3904
▁Fresh	-3905
▁Sweet	-3906
▁alert	-3907
▁beshi	-3908
▁bread	-3909
▁dedic	-3910
▁hasir	-3911
▁ideas	-3912
▁kheye	-3913
▁langu	-3914
▁marat	-3915
▁sobai	-3916
▁অনুভব	-3917
▁অভিজ্	-3918
▁এসেছি	-3919
▁টিকিট	-3920
▁ট্রাই	-3921
▁নজরুল	-3922
▁পাখির	-3923
▁বিবাহ	-3924
▁রাতের	-3925
▁হাঁটো	-3926
ossible	-3927
ountain	-3928
▁Nazrul	-3929
▁Submit	-3930
▁invest	-3931
▁mental	-3932
▁streng	-3933
▁পাওয়া	-3934
▁শরীরের	-3935
▁Cooking	-3936
▁Missing	-3937
▁Weekend	-3938
▁already	-3939
▁amazing	-3940
▁blunder	-3941
▁compare	-3942
▁deliver	-3943
▁digital	-3944
▁network	-3945
▁rooftop	-3946
▁আনন্দিত	-3947
▁কলকাতার	-3948
▁খাবারটি	-3949
▁Boishakh	-3950
▁complain	-3951
▁distract	-3952
▁language	-3953
▁marathon	-3954
▁training	-3955
▁Messenger	-3956
▁energetic	-3957
▁স্ট্রেচিং	-3958
▁incomplete	-3959
▁understand	-3960
ges	-3961
lpo	-3962
oji	-3963
oud	-3964
চাপ	-3965
ব্য	-3966
োরে	-3967
▁Ta	-3968
▁টে	-3969
▁ভে	-3970
▁সস	-3971
ange	-3972
cast	-3973
ches	-3974
logy	-3975
tery	-3976
ব্যা	-3977
র্কে	-3978
াচ্ছ	-3979
▁Imp	-3980
▁Loc	-3981
▁Tea	-3982
▁beg	-3983
▁cry	-3984
▁gas	-3985
▁kom	-3986
▁red	-3987
▁গেম	-3988
▁চলো	-3989
▁টিম	-3990
▁বাদ	-3991
indow	-3992
light	-3993
কামনা	-3994
স্থাপ	-3995
▁City	-3996
▁Cold	-3997
▁Walk	-3998
▁cave	-3999
▁cris	-4000
▁gaan	-4001
▁jete	-4002
▁kine	-4003
▁last	-4004
▁nite	-4005
▁ones	-4006
▁requ	-4007
▁কিনো	-4008
▁ডায়	-4009
▁থাকো	-4010
▁থালা	-4011
▁মসলা	-4012
▁হাতে	-4013
▁Photo	-4014
▁Visit	-4015
▁kills	-4016
▁sound	-4017
▁stars	-4018
▁theke	-4019
▁একবার	-4020
▁কাজটি	-4021
▁খুঁজে	-4022
▁জানেন	-4023
▁দেখার	-4024
▁পড়তে	-4025
▁শোনার	-4026
acation	-4027
▁Seeing	-4028
▁become	-4029
▁candle	-4030
▁chhoto	-4031
▁choose	-4032
▁comedy	-4033
▁enough	-4034
▁father	-4035
▁flower	-4036
▁hungry	-4037
▁member	-4038
▁please	-4039
▁secure	-4040
▁উত্তেজ	-4041
▁চুপচাপ	-4042
echhilen	-4043
▁Payment	-4044
▁tonight	-4045
▁visible	-4046
▁পাওয়ার	-4047
▁বাঁচায়	-4048
▁রাস্তার	-4049
▁হারিয়ে	-4050
▁computer	-4051
▁takeaway	-4052
▁tracking	-4053
▁শুভকামনা	-4054
▁Important	-4055
▁dedicated	-4056
▁খেলনাগুলো	-4057
▁ভবিষ্যতের	-4058
▁চেয়েছিলাম	-4059
▁স্বাস্থ্যকর	-4060
▁confirmation	-4061
▁instructions	-4062
od	-4063
এই	-4064
বো	-4065
bas	-4066
ded	-4067
dor	-4068
eld	-4069
sis	-4070
টির	-4071
ড়ে	-4072
মিত	-4073
র্শ	-4074
▁Be	-4075
▁Ei	-4076
▁ছা	-4077
▁তু	-4078
▁হে	-4079
asta	-4080
ture	-4081
ully	-4082
xtra	-4083
উটার	-4084
ডলাই	-4085
বাটি	-4086
▁Baz	-4087
▁Bro	-4088
▁boi	-4089
▁dro	-4090
▁ign	-4091
▁jai	-4092
▁sol	-4093
▁কেন	-4094
▁গেছ	-4095
▁ধীর	-4096
cling	-4097
iding	-4098
oming	-4099
▁Adda	-4100
▁Cake	-4101
▁Fair	-4102
▁Prof	-4103
▁Push	-4104
▁acce	-4105
▁band	-4106
▁bolo	-4107
▁buff	-4108
▁chef	-4109
▁emot	-4110
▁giye	-4111
▁jabo	-4112
▁lift	-4113
▁publ	-4114
▁soul	-4115
▁than	-4116
▁valo	-4117
▁জন্ম	-4118
▁তর্ক	-4119
▁পরাম	-4120
▁প্রো	-4121
▁ফাইল	-4122
▁বার্	-4123
▁ভুলে	-4124
▁মিসড	-4125
ighbor	-4126
▁Crowd	-4127
▁Extra	-4128
▁Speak	-4129
▁appro	-4130
▁brand	-4131
▁deals	-4132
▁eater	-4133
▁kemon	-4134
▁khawa	-4135
▁offer	-4136
▁sange	-4137
▁spill	-4138
▁style	-4139
▁sugar	-4140
▁trans	-4141
▁আলাদা	-4142
▁গবেষণ	-4143
▁বাড়ে	-4144
echhilo	-4145
fferent	-4146
▁Coffee	-4147
▁Ticket	-4148
▁backup	-4149
▁cheers	-4150
▁coming	-4151
▁letter	-4152
▁parben	-4153
▁pocket	-4154
▁refund	-4155
▁wander	-4156
▁wonder	-4157
▁আকাশের	-4158
▁চ্যাটে	-4159
▁ডেডলাই	-4160
▁প্রিয়	-4161
▁বাড়ির	-4162
▁bonding	-4163
▁ensures	-4164
▁forward	-4165
▁scenery	-4166
▁অনেকদিন	-4167
▁উপস্থাপ	-4168
▁ঘুমাচ্ছ	-4169
▁নিয়মিত	-4170
▁পরামর্শ	-4171
▁সারাদিন	-4172
▁Grabbing	-4173
▁bhalobas	-4174
▁stressed	-4175
▁vacation	-4176
▁Professor	-4177
▁bondhuder	-4178
▁emotional	-4179
▁instantly	-4180
▁lagchhilo	-4181
▁regularly	-4182
▁ডাক্তারের	-4183
▁দাঁড়িয়ে	-4184
▁meditation	-4185
▁technology	-4186
▁আনন্দদায়ক	-4187
do	-4188
gi	-4189
azy	-4190
bit	-4191
mes	-4192
rib	-4193
ser	-4194
ত্ন	-4195
ধান	-4196
ফিক	-4197
ষ্ঠ	-4198
সিপ	-4199
াসা	-4200
ীরব	-4201
ৌতু	-4202
▁Dr	-4203
▁Tu	-4204
▁Wa	-4205
▁ed	-4206
▁ei	-4207
▁অস	-4208
▁কঠ	-4209
ache	-4210
dren	-4211
enge	-4212
hood	-4213
iter	-4214
lmet	-4215
ondo	-4216
orir	-4217
part	-4218
uled	-4219
ustr	-4220
zing	-4221
দ্ধি	-4222
সবজি	-4223
সিপি	-4224
▁Cho	-4225
▁Ign	-4226
▁Ped	-4227
▁Tas	-4228
▁ber	-4229
▁bos	-4230
▁dao	-4231
▁fed	-4232
▁jao	-4233
▁sob	-4234
▁tar	-4235
▁গতি	-4236
▁চোখ	-4237
▁ঝাঁ	-4238
▁নোট	-4239
▁রুট	-4240
▁শাক	-4241
▁স্থ	-4242
endor	-4243
giene	-4244
illed	-4245
ister	-4246
ssent	-4247
ক্ষ্য	-4248
▁Fest	-4249
▁Keep	-4250
▁Part	-4251
▁Taxi	-4252
▁capt	-4253
▁desk	-4254
▁diye	-4255
▁flop	-4256
▁gain	-4257
▁guar	-4258
▁hill	-4259
▁kept	-4260
▁mach	-4261
▁oats	-4262
▁prov	-4263
▁rode	-4264
▁roll	-4265
▁sour	-4266
▁then	-4267
▁কৌতু	-4268
▁খেলে	-4269
▁জানা	-4270
▁জোরে	-4271
▁ট্যা	-4272
▁নীরব	-4273
▁পাগল	-4274
▁প্রয	-4275
▁ফেলো	-4276
▁বিস্	-4277
▁যত্ন	-4278
▁সকাল	-4279
▁সূর্	-4280
ective	-4281
graphy	-4282
ounter	-4283
▁Break	-4284
▁Sobai	-4285
▁blood	-4286
▁hours	-4287
▁khali	-4288
▁khush	-4289
▁sched	-4290
▁রিকশা	-4291
▁Demand	-4292
▁Doctor	-4293
▁anondo	-4294
▁choice	-4295
▁explor	-4296
▁forget	-4297
▁frustr	-4298
▁helmet	-4299
▁resort	-4300
▁rocket	-4301
▁seller	-4302
▁shorir	-4303
▁skills	-4304
▁vendor	-4305
▁বৃষ্টি	-4306
▁রেসিপি	-4307
▁লক্ষ্য	-4308
▁হাঁটাহ	-4309
ssential	-4310
▁careful	-4311
▁lecture	-4312
▁offline	-4313
▁opinion	-4314
▁silence	-4315
▁talking	-4316
▁tourist	-4317
▁আনন্দের	-4318
▁ট্রাফিক	-4319
▁পিকনিকে	-4320
▁সম্পন্ন	-4321
▁guarante	-4322
▁peaceful	-4323
▁spending	-4324
▁ক্লান্তি	-4325
▁ডকুমেন্ট	-4326
▁সন্ধ্যার	-4327
▁সম্পর্কে	-4328
▁Yesterday	-4329
▁challenge	-4330
▁different	-4331
▁scheduled	-4332
▁প্রযুক্তি	-4333
▁bargaining	-4334
▁prioritized	-4335
▁participated	-4336
Tu	-4337
aj	-4338
sm	-4339
োর	-4340
hys	-4341
min	-4342
টিন	-4343
প্ত	-4344
শার	-4345
▁Ch	-4346
▁Tw	-4347
▁es	-4348
▁ut	-4349
▁কী	-4350
▁জা	-4351
anna	-4352
aper	-4353
ases	-4354
ping	-4355
কারী	-4356
ধ্যে	-4357
স্টা	-4358
াঁটি	-4359
ৎকার	-4360
▁Com	-4361
▁Dig	-4362
▁Hit	-4363
▁Ser	-4364
▁diy	-4365
▁end	-4366
▁fil	-4367
▁kat	-4368
▁lea	-4369
▁mos	-4370
▁smi	-4371
▁tid	-4372
▁আছি	-4373
▁কেক	-4374
▁ক্ল	-4375
▁খবর	-4376
▁পাশ	-4377
▁মুখ	-4378
▁সফল	-4379
ashes	-4380
ening	-4381
prise	-4382
smith	-4383
sport	-4384
tally	-4385
ভিন্ন	-4386
স্তার	-4387
াওয়া	-4388
ানীয়	-4389
িয়ের	-4390
▁Pack	-4391
▁Play	-4392
▁cong	-4393
▁date	-4394
▁dite	-4395
▁mile	-4396
▁nerv	-4397
▁othe	-4398
▁pain	-4399
▁phys	-4400
▁pray	-4401
▁seta	-4402
▁অনুস	-4403
▁কঠিন	-4404
▁গ্রহ	-4405
▁তুমি	-4406
▁পায়	-4407
▁প্রথ	-4408
▁শেখা	-4409
estion	-4410
ission	-4411
ycling	-4412
ন্তব্য	-4413
য়েন্ট	-4414
▁Music	-4415
▁advis	-4416
▁bumps	-4417
▁dekha	-4418
▁eaten	-4419
▁glass	-4420
▁heard	-4421
▁mania	-4422
▁rakha	-4423
▁turns	-4424
▁কেনার	-4425
▁বাসের	-4426
▁রাখতে	-4427
tenance	-4428
▁Outfit	-4429
▁forgot	-4430
▁khushi	-4431
▁respon	-4432
▁thakbe	-4433
▁আয়োজন	-4434
▁ইনস্টা	-4435
▁জীবনের	-4436
▁বাসায়	-4437
▁বৃদ্ধি	-4438
▁Overall	-4439
▁Station	-4440
▁achieve	-4441
▁balloon	-4442
▁keeping	-4443
▁machine	-4444
▁managed	-4445
▁nervous	-4446
▁totally	-4447
▁village	-4448
▁আলোচনার	-4449
▁ট্যাক্স	-4450
▁ট্রিপের	-4451
▁বাড়াতে	-4452
▁বিভিন্ন	-4453
▁Watching	-4454
▁ambiance	-4455
▁approval	-4456
▁children	-4457
▁consider	-4458
▁friendly	-4459
▁headache	-4460
▁laughing	-4461
▁খাওয়েছি	-4462
▁স্থানীয়	-4463
ightseeing	-4464
▁installed	-4465
▁refreshed	-4466
▁transport	-4467
▁জানিয়েছি	-4468
▁ডেলিভারির	-4469
▁হাঁটাহাঁটি	-4470
▁prescription	-4471
oa	-4472
yn	-4473
বহ	-4474
িশ	-4475
ুণ	-4476
bum	-4477
dom	-4478
rol	-4479
ume	-4480
ংস্	-4481
জিক	-4482
ণ্ড	-4483
দেশ	-4484
দ্র	-4485
বাই	-4486
াক্	-4487
▁অভ	-4488
▁ফে	-4489
Tube	-4490
akka	-4491
dden	-4492
ging	-4493
ique	-4494
star	-4495
ারুণ	-4496
ুরের	-4497
্বাস	-4498
্রাট	-4499
▁His	-4500
▁Por	-4501
▁Que	-4502
▁die	-4503
▁guy	-4504
▁max	-4505
▁nut	-4506
▁কাল	-4507
▁গেল	-4508
▁চাপ	-4509
▁বিক	-4510
▁বির	-4511
▁সর্	-4512
▁সাব	-4513
▁স্ম	-4514
asual	-4515
aught	-4516
icate	-4517
ities	-4518
other	-4519
ক্ষার	-4520
▁Lock	-4521
▁Slow	-4522
▁mute	-4523
▁okay	-4524
▁rice	-4525
▁sink	-4526
▁tele	-4527
▁খোঁজ	-4528
▁নিলে	-4529
▁যানজ	-4530
▁সামা	-4531
vision	-4532
গ্রামে	-4533
▁Daily	-4534
▁Local	-4535
▁Party	-4536
▁Sleep	-4537
▁activ	-4538
▁bland	-4539
▁calms	-4540
▁curry	-4541
▁ekdom	-4542
▁exams	-4543
▁golpo	-4544
▁habit	-4545
▁khela	-4546
▁likes	-4547
▁pakka	-4548
▁rakhe	-4549
▁shirt	-4550
▁spots	-4551
▁tight	-4552
▁গ্রাম	-4553
▁ঘুরতে	-4554
▁দারুণ	-4555
▁দিলাম	-4556
▁নাশতা	-4557
▁পারছি	-4558
▁বাদশা	-4559
▁বিশেষ	-4560
ational	-4561
attered	-4562
▁Comedy	-4563
▁Gossip	-4564
▁Haggle	-4565
▁accept	-4566
▁amader	-4567
▁broken	-4568
▁buffet	-4569
▁cardio	-4570
▁center	-4571
▁detail	-4572
▁faster	-4573
▁handle	-4574
▁maniac	-4575
▁master	-4576
▁showed	-4577
▁slowly	-4578
▁window	-4579
▁অনুষ্ঠ	-4580
▁ছাড়তে	-4581
▁বিয়ের	-4582
▁শরীরকে	-4583
▁সম্রাট	-4584
▁Dessert	-4585
▁Fashion	-4586
▁Service	-4587
▁YouTube	-4588
▁brother	-4589
▁cancell	-4590
▁changed	-4591
▁chhilen	-4592
▁kinechi	-4593
▁reunion	-4594
▁আড্ডায়	-4595
▁Birthday	-4596
▁accident	-4597
▁advanced	-4598
▁neighbor	-4599
▁possible	-4600
▁relation	-4601
▁পরীক্ষার	-4602
▁Community	-4603
▁condition	-4604
▁finishing	-4605
▁gathering	-4606
▁negotiate	-4607
▁responded	-4608
▁মিডিয়ায়	-4609
▁দৌড়িয়েছি	-4610
▁ইনস্টাগ্রামে	-4611
fa	-4612
fl	-4613
গজ	-4614
হী	-4615
amp	-4616
bot	-4617
cut	-4618
ina	-4619
len	-4620
oom	-4621
ঠিক	-4622
ণ্ঠ	-4623
ন্স	-4624
ভিউ	-4625
ম্ব	-4626
▁Aa	-4627
▁im	-4628
▁ইম	-4629
▁পি	-4630
▁মত	-4631
▁রং	-4632
▁রঙ	-4633
ccas	-4634
comm	-4635
erce	-4636
flix	-4637
hule	-4638
mper	-4639
olle	-4640
ries	-4641
জ্জা	-4642
ধারণ	-4643
ন্তা	-4644
ানের	-4645
েলার	-4646
▁Dis	-4647
▁Dri	-4648
▁Ema	-4649
▁Rab	-4650
▁age	-4651
▁bis	-4652
▁dev	-4653
▁div	-4654
▁enc	-4655
▁gig	-4656
▁kid	-4657
▁leg	-4658
▁own	-4659
▁ধরা	-4660
▁পাই	-4661
▁পাব	-4662
▁বলা	-4663
▁ভাগ	-4664
▁হতে	-4665
ciety	-4666
fully	-4667
haust	-4668
leash	-4669
চ্ছেন	-4670
▁Horn	-4671
▁Hunt	-4672
▁Hydr	-4673
▁Want	-4674
▁Year	-4675
▁cart	-4676
▁dhor	-4677
▁emon	-4678
▁gulo	-4679
▁jaoa	-4680
▁moon	-4681
▁moto	-4682
▁pand	-4683
▁pore	-4684
▁prot	-4685
▁rate	-4686
▁subm	-4687
▁tank	-4688
▁কণ্ঠ	-4689
▁কাগজ	-4690
▁কাটি	-4691
▁পুরো	-4692
▁প্যা	-4693
▁রেখে	-4694
▁সঠিক	-4695
▁হলেও	-4696
friend	-4697
huchka	-4698
ipment	-4699
ribute	-4700
চ্ছন্ন	-4701
▁Bland	-4702
▁Munch	-4703
▁catch	-4704
▁click	-4705
▁cover	-4706
▁drunk	-4707
▁dulls	-4708
▁grade	-4709
▁korar	-4710
▁reels	-4711
▁robot	-4712
▁setup	-4713
▁stock	-4714
▁waves	-4715
▁পড়ার	-4716
▁ফ্যান	-4717
▁ব্যাগ	-4718
▁ভাড়া	-4719
▁মধ্যে	-4720
▁মেলার	-4721
▁রিভিউ	-4722
▁শিখতে	-4723
▁সাংস্	-4724
▁স্বাদ	-4725
▁হয়তো	-4726
ccasion	-4727
▁Buying	-4728
▁Rabind	-4729
▁chaser	-4730
▁delays	-4731
▁enroll	-4732
▁record	-4733
▁reserv	-4734
▁screen	-4735
▁shower	-4736
▁verify	-4737
▁walked	-4738
▁অনুসরণ	-4739
▁পারলাম	-4740
▁স্মৃতি	-4741
▁হচ্ছিল	-4742
commerce	-4743
friendly	-4744
iversary	-4745
▁Getting	-4746
▁Netflix	-4747
▁alright	-4748
▁capture	-4749
▁clearly	-4750
▁company	-4751
▁fashion	-4752
▁mystery	-4753
▁napping	-4754
▁results	-4755
▁society	-4756
▁গ্রামের	-4757
▁দুপুরের	-4758
▁পছন্দের	-4759
▁মানুষের	-4760
▁addition	-4761
▁checking	-4762
▁included	-4763
▁laughter	-4764
▁relaxing	-4765
▁response	-4766
▁verified	-4767
▁উত্তেজনা	-4768
▁কাগজপত্র	-4769
▁Breakfast	-4770
▁following	-4771
▁hydration	-4772
▁searching	-4773
▁sometimes	-4774
▁পাঠিয়েছে	-4775
▁পার্সেলের	-4776
▁প্রাকৃতিক	-4777
▁bhalobasan	-4778
▁management	-4779
▁submission	-4780
▁দেখিয়েছেন	-4781
▁সাংস্কৃতিক	-4782
▁reservation	-4783
▁প্রয়োজনীয়	-4784
ex	-4785
zy	-4786
ইক	-4787
গো	-4788
মল	-4789
ৃদ	-4790
eno	-4791
ror	-4792
usp	-4793
uth	-4794
ync	-4795
ইকএ	-4796
ব্র	-4797
হাস	-4798
▁da	-4799
▁ir	-4800
▁জু	-4801
▁লো	-4802
chan	-4803
idin	-4804
itam	-4805
omet	-4806
quad	-4807
roud	-4808
tact	-4809
ulty	-4810
vior	-4811
গেছে	-4812
ন্ডে	-4813
▁Don	-4814
▁aff	-4815
▁dwe	-4816
▁hoc	-4817
▁loo	-4818
▁she	-4819
▁shi	-4820
▁spr	-4821
▁tom	-4822
▁via	-4823
▁কলে	-4824
▁কোন	-4825
▁ঝঙ্	-4826
▁দূর	-4827
▁ফুট	-4828
▁হৃদ	-4829
icing	-4830
izing	-4831
nergy	-4832
ushes	-4833
ওয়ার	-4834
দেশনা	-4835
▁Arre	-4836
▁Less	-4837
▁List	-4838
▁Tumi	-4839
▁fore	-4840
▁goes	-4841
▁jams	-4842
▁loud	-4843
▁oper	-4844
▁susp	-4845
▁tips	-4846
▁wave	-4847
▁উইকএ	-4848
▁টিভি	-4849
▁তোলে	-4850
▁ধাক্	-4851
▁বেছে	-4852
▁ভাষা	-4853
▁রাখো	-4854
▁লাইক	-4855
shomoy	-4856
▁Drink	-4857
▁Notes	-4858
▁Somet	-4859
▁board	-4860
▁chole	-4861
▁field	-4862
▁irrit	-4863
▁jante	-4864
▁lover	-4865
▁means	-4866
▁proud	-4867
▁serve	-4868
▁shout	-4869
▁worth	-4870
▁অনুভূ	-4871
▁ইচ্ছে	-4872
▁কবিতা	-4873
▁খোঁজে	-4874
▁গেয়ে	-4875
▁চাইলে	-4876
▁চ্যাট	-4877
▁জানতে	-4878
▁পারেন	-4879
▁স্টপে	-4880
workout	-4881
▁Please	-4882
▁Sweets	-4883
▁bashan	-4884
▁casual	-4885
▁change	-4886
▁decide	-4887
▁dekhen	-4888
▁effort	-4889
▁foodie	-4890
▁fuchka	-4891
▁leaves	-4892
▁mishti	-4893
▁number	-4894
▁policy	-4895
▁sudden	-4896
▁sunset	-4897
▁taught	-4898
▁turned	-4899
▁গল্পটি	-4900
▁গল্পের	-4901
▁চিন্তা	-4902
▁জানাতে	-4903
▁ঝঙ্কার	-4904
▁পাঠালে	-4905
▁বিছানা	-4906
▁লেগেছে	-4907
iversity	-4908
▁Ordered	-4909
▁Talking	-4910
▁Trainer	-4911
▁counter	-4912
▁courier	-4913
▁created	-4914
▁dweller	-4915
▁planted	-4916
▁request	-4917
▁shundor	-4918
▁spreads	-4919
▁অর্ডারে	-4920
▁পরিবর্ত	-4921
▁ভ্রমণের	-4922
▁Rabindra	-4923
▁adjusted	-4924
▁creative	-4925
▁everyday	-4926
▁hochhilo	-4927
▁protidin	-4928
▁provider	-4929
▁reaching	-4930
▁selected	-4931
▁sleeping	-4932
▁surprise	-4933
▁suspense	-4934
▁wanderer	-4935
▁ট্যাক্সি	-4936
▁প্রকৃতির	-4937
▁Listening	-4938
▁delivered	-4939
▁appreciate	-4940
▁relationsh	-4941
▁television	-4942
▁understood	-4943
▁communicate	-4944
▁discussions	-4945
▁informative	-4946
▁maintenance	-4947
▁sightseeing	-4948
pl	-4949
ঙে	-4950
জপ	-4951
ধা	-4952
সী	-4953
ane	-4954
azz	-4955
con	-4956
hal	-4957
hur	-4958
kar	-4959
ler	-4960
lla	-4961
mal	-4962
mos	-4963
pes	-4964
ঘ্র	-4965
থের	-4966
মবা	-4967
র্ঘ	-4968
ামত	-4969
িশু	-4970
ীরে	-4971
েতে	-4972
্রো	-4973
▁Ad	-4974
▁Sk	-4975
▁Th	-4976
▁cu	-4977
▁ja	-4978
▁ye	-4979
▁ডি	-4980
▁নদ	-4981
▁বো	-4982
▁যু	-4983
aces	-4984
enda	-4985
erry	-4986
ided	-4987
mosp	-4988
most	-4989
osed	-4990
ower	-4991
গ্রহ	-4992
ঘ্রই	-4993
জপুত	-4994
ত্রী	-4995
ধানে	-4996
▁Cut	-4997
▁Gym	-4998
▁Kha	-4999
▁Red	-5000
▁Tag	-5001
▁ane	-5002
▁due	-5003
▁few	-5004
▁kho	-5005
▁pou	-5006
▁spy	-5007
▁tui	-5008
▁আত্	-5009
▁এড়	-5010
▁লিখ	-5011
alent	-5012
asant	-5013
bsite	-5014
itter	-5015
ব্যাগ	-5016
মবাতি	-5017
▁Snag	-5018
▁Stre	-5019
▁bene	-5020
▁buil	-5021
▁caut	-5022
▁dire	-5023
▁dive	-5024
▁feat	-5025
▁gula	-5026
▁idea	-5027
▁jack	-5028
▁kina	-5029
▁lent	-5030
▁pori	-5031
▁rage	-5032
▁sand	-5033
▁skip	-5034
▁text	-5035
▁trek	-5036
▁ইমেল	-5037
▁একজন	-5038
▁কষ্ট	-5039
▁কারণ	-5040
▁কিনে	-5041
▁খোলা	-5042
▁জীবন	-5043
▁ভেঙে	-5044
▁মানি	-5045
▁শিশু	-5046
▁সাইজ	-5047
loated	-5048
ক্ষায়	-5049
জপুত্র	-5050
ব্রেরি	-5051
যাত্রী	-5052
▁Colle	-5053
▁Dance	-5054
▁Fever	-5055
▁Paper	-5056
▁Spill	-5057
▁Story	-5058
▁album	-5059
▁biscu	-5060
▁carry	-5061
▁emoji	-5062
▁hashe	-5063
▁kalke	-5064
▁known	-5065
▁patha	-5066
▁salad	-5067
▁smile	-5068
▁speak	-5069
▁which	-5070
▁yours	-5071
▁এভাবে	-5072
▁কাপড়	-5073
▁কেকের	-5074
▁জ্বরে	-5075
▁পুরনো	-5076
▁প্রশং	-5077
▁মিলিত	-5078
▁যাবেন	-5079
▁লাগবে	-5080
ffering	-5081
rapping	-5082
▁Driver	-5083
▁Energy	-5084
▁Ignite	-5085
▁Laptop	-5086
▁Tagore	-5087
▁Waiter	-5088
▁afford	-5089
▁almost	-5090
▁atmosp	-5091
▁blasts	-5092
▁bolben	-5093
▁dining	-5094
▁ghorer	-5095
▁ghumte	-5096
▁hocche	-5097
▁inspir	-5098
▁launch	-5099
▁lesson	-5100
▁matter	-5101
▁nutrit	-5102
▁opport	-5103
▁places	-5104
▁prince	-5105
▁public	-5106
▁redial	-5107
▁seeing	-5108
▁গবেষণা	-5109
▁বিক্রে	-5110
▁রেখেছি	-5111
▁শিখেছি	-5112
▁শীঘ্রই	-5113
▁সংগ্রহ	-5114
▁সকালের	-5115
▁সাক্ষা	-5116
▁Exercis	-5117
▁Planned	-5118
▁arrives	-5119
▁contact	-5120
▁control	-5121
▁crashes	-5122
▁cycling	-5123
▁hopeful	-5124
▁lagchhe	-5125
▁natural	-5126
▁plumber	-5127
▁present	-5128
▁sitting	-5129
▁teaches	-5130
▁ট্র্যাক	-5131
▁পৌঁছানো	-5132
▁বিবাহের	-5133
▁মোমবাতি	-5134
▁সাবধানে	-5135
▁সামাজিক	-5136
▁cautious	-5137
▁checkout	-5138
▁features	-5139
▁khabarer	-5140
▁mountain	-5141
▁physical	-5142
▁উইকএন্ডে	-5143
▁ভালোভাবে	-5144
▁রাজপুত্র	-5145
▁Sometimes	-5146
▁carefully	-5147
▁followers	-5148
▁listening	-5149
▁অপেক্ষায়	-5150
▁কাটিয়েছি	-5151
▁চালিয়েছি	-5152
▁জন্মদিনের	-5153
▁পাঠিয়েছি	-5154
▁মানিব্যাগ	-5155
▁লাইব্রেরি	-5156
ccasionally	-5157
▁Bargaining	-5158
▁atmosphere	-5159
▁downloaded	-5160
▁exercising	-5161
▁irritation	-5162
▁সাক্ষাৎকার	-5163
▁electricity	-5164
nw	-5165
কো	-5166
নফ	-5167
শী	-5168
্ভ	-5169
ars	-5170
jon	-5171
lar	-5172
pay	-5173
ton	-5174
ups	-5175
খান	-5176
ঠাক	-5177
মার	-5178
রুন	-5179
▁Fe	-5180
▁Gu	-5181
▁du	-5182
▁ic	-5183
▁অদ	-5184
▁জে	-5185
▁পূ	-5186
▁বদ	-5187
▁হই	-5188
ened	-5189
epar	-5190
lock	-5191
mbre	-5192
oves	-5193
robe	-5194
sing	-5195
tens	-5196
urer	-5197
urga	-5198
ঙালি	-5199
টিতে	-5200
পালা	-5201
র্যা	-5202
▁Bed	-5203
▁Rec	-5204
▁Try	-5205
▁aut	-5206
▁dry	-5207
▁ins	-5208
▁jan	-5209
▁mat	-5210
▁opt	-5211
▁ple	-5212
▁rom	-5213
▁wet	-5214
▁কনফ	-5215
▁ঘরে	-5216
▁চার	-5217
▁চিঠ	-5218
▁ছাদ	-5219
▁ডাল	-5220
▁নেন	-5221
▁মরে	-5222
▁মলে	-5223
▁হতা	-5224
achhe	-5225
hange	-5226
khchi	-5227
shirt	-5228
where	-5229
নাথের	-5230
্বপ্ন	-5231
▁Flow	-5232
▁Game	-5233
▁Last	-5234
▁Lost	-5235
▁Menu	-5236
▁Move	-5237
▁Ping	-5238
▁Sing	-5239
▁That	-5240
▁blog	-5241
▁dekh	-5242
▁dims	-5243
▁dust	-5244
▁eshe	-5245
▁goal	-5246
▁hote	-5247
▁kobe	-5248
▁lazy	-5249
▁load	-5250
▁pari	-5251
▁pele	-5252
▁pora	-5253
▁raat	-5254
▁shok	-5255
▁shot	-5256
▁sofa	-5257
▁spir	-5258
▁zest	-5259
▁অপরি	-5260
▁আত্ম	-5261
▁কবির	-5262
▁কাটা	-5263
▁কোর্	-5264
▁তোলা	-5265
▁দিলে	-5266
▁ধারে	-5267
▁ফেসব	-5268
▁সার্	-5269
arious	-5270
ateful	-5271
inking	-5272
inning	-5273
ন্টেশন	-5274
▁Chill	-5275
▁Durga	-5276
▁Reply	-5277
▁Spark	-5278
▁These	-5279
▁agree	-5280
▁aroma	-5281
▁black	-5282
▁deben	-5283
▁enter	-5284
▁ferry	-5285
▁fever	-5286
▁invis	-5287
▁kinds	-5288
▁plate	-5289
▁posts	-5290
▁ranna	-5291
▁right	-5292
▁separ	-5293
▁spoke	-5294
▁stage	-5295
▁stuff	-5296
▁thank	-5297
▁umbre	-5298
▁walks	-5299
▁এখানে	-5300
▁ক্যাফ	-5301
▁ক্লাস	-5302
▁খেলতে	-5303
▁ঘামের	-5304
▁টিমের	-5305
▁তারকা	-5306
▁পাঠান	-5307
▁ফুলের	-5308
▁ব্যাপ	-5309
▁মতামত	-5310
▁হৃদয়	-5311
ardrobe	-5312
llation	-5313
▁Budget	-5314
▁Eating	-5315
▁Papers	-5316
▁Snooze	-5317
▁agenda	-5318
▁bandit	-5319
▁boosts	-5320
▁confer	-5321
▁corner	-5322
▁crisis	-5323
▁debate	-5324
▁feasts	-5325
▁joined	-5326
▁option	-5327
▁rechar	-5328
▁remind	-5329
▁seemed	-5330
▁shomoy	-5331
▁unique	-5332
▁worked	-5333
▁অদৃশ্য	-5334
▁ঠিকঠাক	-5335
▁পিকনিক	-5336
▁বাঙালি	-5337
▁বাড়াও	-5338
▁বিমানব	-5339
▁স্বপ্ন	-5340
haustion	-5341
▁Bloated	-5342
▁Twitter	-5343
▁another	-5344
▁history	-5345
▁lentils	-5346
▁medical	-5347
▁moments	-5348
▁noticed	-5349
▁options	-5350
▁phuchka	-5351
▁release	-5352
▁removes	-5353
▁reports	-5354
▁sadness	-5355
▁serious	-5356
▁watered	-5357
▁website	-5358
▁খাওয়ার	-5359
▁গাছপালা	-5360
▁ট্রেন্ড	-5361
▁ডেডলাইন	-5362
▁দরদামের	-5363
▁পার্কের	-5364
▁প্রোটিন	-5365
▁সম্পর্ক	-5366
nwrapping	-5367
▁actively	-5368
▁biscuits	-5369
▁chatting	-5370
▁expenses	-5371
▁grateful	-5372
▁pleasant	-5373
▁products	-5374
▁reaction	-5375
▁separate	-5376
▁essential	-5377
▁expensive	-5378
▁explained	-5379
▁gossiping	-5380
▁increases	-5381
▁invisible	-5382
▁investment	-5383
▁shobshomoy	-5384
▁ক্লায়েন্ট	-5385
▁productivity	-5386
▁রবীন্দ্রনাথের	-5387
fi	-5388
gu	-5389
je	-5390
pd	-5391
গত	-5392
afe	-5393
des	-5394
ily	-5395
rid	-5396
sha	-5397
tes	-5398
tom	-5399
ury	-5400
করি	-5401
বিল	-5402
বিশ	-5403
মিং	-5404
শীল	-5405
শেষ	-5406
্ভব	-5407
▁En	-5408
▁Ki	-5409
▁আশ	-5410
▁জম	-5411
▁বু	-5412
ator	-5413
ents	-5414
gulo	-5415
hole	-5416
omad	-5417
otee	-5418
oura	-5419
tern	-5420
ular	-5421
কাটা	-5422
ঝেতে	-5423
ধুলা	-5424
লাইড	-5425
ুয়া	-5426
্লাস	-5427
▁Eta	-5428
▁May	-5429
▁ash	-5430
▁bel	-5431
▁cat	-5432
▁chu	-5433
▁fry	-5434
▁inj	-5435
▁log	-5436
▁nei	-5437
▁reg	-5438
▁sme	-5439
▁vol	-5440
▁yet	-5441
▁অতি	-5442
▁আবহ	-5443
▁আসো	-5444
▁একে	-5445
▁ক্র	-5446
▁খাদ	-5447
▁জোশ	-5448
▁নাট	-5449
▁পথে	-5450
▁ভাই	-5451
▁সেই	-5452
amina	-5453
atoes	-5454
ected	-5455
isine	-5456
lines	-5457
oring	-5458
stage	-5459
undry	-5460
রিয়ে	-5461
▁Bill	-5462
▁Cafe	-5463
▁Chal	-5464
▁Ektu	-5465
▁Fuel	-5466
▁Home	-5467
▁Love	-5468
▁Take	-5469
▁Weak	-5470
▁dine	-5471
▁does	-5472
▁drop	-5473
▁ghur	-5474
▁glow	-5475
▁jhal	-5476
▁peak	-5477
▁port	-5478
▁real	-5479
▁rent	-5480
▁snoo	-5481
▁tray	-5482
▁ways	-5483
▁zing	-5484
▁আরাম	-5485
▁আসছে	-5486
▁উঠতে	-5487
▁করবো	-5488
▁খবরে	-5489
▁গন্ধ	-5490
▁গুগল	-5491
▁ছাদে	-5492
▁জেগে	-5493
▁ধুলো	-5494
▁নদীর	-5495
▁পোশা	-5496
▁ফোটে	-5497
▁ফ্যা	-5498
▁মাঠে	-5499
ancial	-5500
ishkar	-5501
lement	-5502
▁Books	-5503
▁Cance	-5504
▁Regul	-5505
▁apart	-5506
▁cheer	-5507
▁clown	-5508
▁dream	-5509
▁green	-5510
▁never	-5511
▁nomad	-5512
▁pasta	-5513
▁quite	-5514
▁seems	-5515
▁shine	-5516
▁shows	-5517
▁space	-5518
▁these	-5519
▁wants	-5520
▁উপায়	-5521
▁গ্রহণ	-5522
▁চাকরি	-5523
▁চালাও	-5524
▁জ্যাম	-5525
▁টেবিল	-5526
▁পড়ছে	-5527
▁প্রথম	-5528
▁মোবাই	-5529
▁সমস্ত	-5530
▁সূর্য	-5531
বিশ্বাস	-5532
▁Choose	-5533
▁Emails	-5534
▁Future	-5535
▁Proper	-5536
▁Queues	-5537
▁Seller	-5538
▁Sweaty	-5539
▁altern	-5540
▁artist	-5541
▁brunch	-5542
▁bumper	-5543
▁giggle	-5544
▁needed	-5545
▁nights	-5546
▁opened	-5547
▁papers	-5548
▁prefer	-5549
▁recite	-5550
▁shunle	-5551
▁signal	-5552
▁sister	-5553
▁spells	-5554
▁thaken	-5555
▁অনলাইন	-5556
▁কবিতার	-5557
▁চায়ের	-5558
▁জ্যামে	-5559
▁ঠাট্টা	-5560
▁ধাক্কা	-5561
▁পারবেন	-5562
▁প্রকাশ	-5563
▁মেঝেতে	-5564
▁শেখানো	-5565
▁সহায়ক	-5566
▁সার্ভি	-5567
▁স্লাইড	-5568
quipment	-5569
▁Jogging	-5570
▁Product	-5571
▁Teacher	-5572
▁Trouble	-5573
▁avoided	-5574
▁devotee	-5575
▁diyechi	-5576
▁encoura	-5577
▁hostage	-5578
▁matters	-5579
▁popular	-5580
▁ringing	-5581
▁stamina	-5582
▁studied	-5583
▁studies	-5584
▁unleash	-5585
▁warrior	-5586
▁অনুভূতি	-5587
▁কৌতুকের	-5588
▁ট্রেনের	-5589
▁নাস্তার	-5590
▁বন্ধুকে	-5591
▁বাড়ায়	-5592
▁বিছানার	-5593
▁Dreaming	-5594
▁Exercise	-5595
▁Sweating	-5596
▁exchange	-5597
▁hydrated	-5598
▁messaged	-5599
▁suddenly	-5600
▁thankful	-5601
▁thoughts	-5602
▁trending	-5603
▁umbrella	-5604
▁আবহাওয়া	-5605
▁কেনাকাটা	-5606
▁খেলাধুলা	-5607
▁পিকনিকের	-5608
▁ব্যাপারে	-5609
bscription	-5610
▁Nighttime	-5611
▁apartment	-5612
▁correctly	-5613
▁digestion	-5614
▁efficient	-5615
▁entertain	-5616
▁forgotten	-5617
▁monitored	-5618
▁porishkar	-5619
▁reactions	-5620
▁reception	-5621
▁অভিযাত্রী	-5622
▁পরিচ্ছন্ন	-5623
▁affordable	-5624
▁prioritize	-5625
▁university	-5626
▁distraction	-5627
▁opportunity	-5628
▁photography	-5629
▁আত্মবিশ্বাস	-5630
▁Cancellation	-5631
▁arrangements	-5632
▁cancellation	-5633
by	-5634
েস	-5635
ans	-5636
ath	-5637
cep	-5638
hip	-5639
hod	-5640
int	-5641
kho	-5642
oli	-5643
ona	-5644
oni	-5645
ont	-5646
pot	-5647
rup	-5648
thm	-5649
ulk	-5650
urb	-5651
কেট	-5652
ঙ্খ	-5653
টোগ	-5654
ণ্য	-5655
পাশ	-5656
মেট	-5657
রমে	-5658
শলা	-5659
সিক	-5660
স্য	-5661
্পি	-5662
▁el	-5663
▁hu	-5664
▁জ্	-5665
ayam	-5666
down	-5667
gged	-5668
ides	-5669
ieve	-5670
ired	-5671
itar	-5672
kale	-5673
made	-5674
mare	-5675
mony	-5676
over	-5677
tage	-5678
জকার	-5679
শনের	-5680
ৃঙ্খ	-5681
েলুন	-5682
▁Age	-5683
▁Due	-5684
▁Map	-5685
▁Met	-5686
▁Pop	-5687
▁Rou	-5688
▁Tri	-5689
▁bun	-5690
▁cab	-5691
▁den	-5692
▁may	-5693
▁que	-5694
▁rhy	-5695
▁upc	-5696
▁চাঁ	-5697
▁পাহ	-5698
▁বলব	-5699
▁বাব	-5700
▁বিল	-5701
▁সমা	-5702
▁সাম	-5703
ances	-5704
eling	-5705
icial	-5706
ieved	-5707
khane	-5708
lling	-5709
onest	-5710
store	-5711
tings	-5712
ution	-5713
িনিকে	-5714
▁Bike	-5715
▁Fast	-5716
▁Kick	-5717
▁Meet	-5718
▁Rock	-5719
▁Sale	-5720
▁Snap	-5721
▁abar	-5722
▁besh	-5723
▁chir	-5724
▁chol	-5725
▁fame	-5726
▁meas	-5727
▁phan	-5728
▁puts	-5729
▁rele	-5730
▁tule	-5731
▁type	-5732
▁অভিন	-5733
▁উঠেই	-5734
▁গাছে	-5735
▁ঘরটি	-5736
▁জিমে	-5737
▁ঝাড়	-5738
▁ধরুন	-5739
▁পণ্য	-5740
▁পারব	-5741
▁ফটোগ	-5742
▁ফুলে	-5743
▁ভক্ত	-5744
▁মিনি	-5745
▁রঙিন	-5746
▁সবার	-5747
▁হতাশ	-5748
▁হাসা	-5749
outing	-5750
▁Aajke	-5751
▁Bazar	-5752
▁Crave	-5753
▁Match	-5754
▁Notun	-5755
▁Pedal	-5756
▁Ready	-5757
▁Stone	-5758
▁Taste	-5759
▁annoy	-5760
▁asben	-5761
▁bhule	-5762
▁chara	-5763
▁flops	-5764
▁front	-5765
▁hands	-5766
▁korbe	-5767
▁laglo	-5768
▁lifts	-5769
▁loves	-5770
▁munch	-5771
▁noise	-5772
▁paren	-5773
▁resol	-5774
▁rings	-5775
▁times	-5776
▁worry	-5777
▁কম্পি	-5778
▁কোর্স	-5779
▁খাদ্য	-5780
▁খাবেন	-5781
▁গতিতে	-5782
▁গ্লাস	-5783
▁দেখলে	-5784
▁পায়ে	-5785
▁পোশাক	-5786
▁বেলুন	-5787
▁লাগলে	-5788
▁সম্ভব	-5789
eremony	-5790
▁Celebr	-5791
▁Khabar	-5792
▁Poetry	-5793
▁banter	-5794
▁couldn	-5795
▁dekhte	-5796
▁events	-5797
▁gechhe	-5798
▁hiding	-5799
▁minute	-5800
▁posted	-5801
▁reader	-5802
▁relief	-5803
▁rhythm	-5804
▁safely	-5805
▁season	-5806
▁suffic	-5807
▁winter	-5808
▁এভাবেই	-5809
▁চ্যালে	-5810
▁নাস্তা	-5811
▁প্রেজে	-5812
▁বানানো	-5813
▁যাচ্ছে	-5814
▁রোজকার	-5815
▁শুরুটা	-5816
▁হাঁটলে	-5817
▁Biryani	-5818
▁Flowers	-5819
▁Overpay	-5820
▁Protein	-5821
▁attract	-5822
▁believe	-5823
▁cuisine	-5824
▁growing	-5825
▁hygiene	-5826
▁logical	-5827
▁phantom	-5828
▁গাছগুলো	-5829
▁নজরুলের	-5830
▁পরিবেশে	-5831
▁ফটোগ্রা	-5832
▁ফুরিয়ে	-5833
▁Cultural	-5834
▁breaking	-5835
▁colorful	-5836
▁detailed	-5837
▁drinking	-5838
▁explorer	-5839
▁flattens	-5840
▁playlist	-5841
▁problems	-5842
▁recorded	-5843
▁refilled	-5844
▁released	-5845
▁relieved	-5846
▁rockstar	-5847
▁upcoming	-5848
▁ক্লিনিকে	-5849
▁গিয়েছিল	-5850
▁পরিবর্তন	-5851
▁পৌঁছানোর	-5852
▁প্রজেক্ট	-5853
▁ভালোবাসে	-5854
▁মিডিয়ার	-5855
▁Celebrate	-5856
▁Interview	-5857
▁beginning	-5858
▁bookstore	-5859
▁equipment	-5860
▁financial	-5861
▁implement	-5862
▁motivates	-5863
▁nightmare	-5864
▁practiced	-5865
▁scattered	-5866
▁suggested	-5867
▁wondering	-5868
▁কম্পিউটার	-5869
▁Shopkeeper	-5870
▁contribute	-5871
▁interested	-5872
▁motivation	-5873
▁sufficient	-5874
▁প্রযুক্তির	-5875
▁neighborhood	-5876
▁ক্লায়েন্টের	-5877
IF	-5878
ca	-5879
og	-5880
sc	-5881
কষ	-5882
িও	-5883
্জ	-5884
agn	-5885
ale	-5886
alf	-5887
gry	-5888
hay	-5889
ift	-5890
iri	-5891
ito	-5892
rat	-5893
sob	-5894
vey	-5895
খের	-5896
জনে	-5897
জেট	-5898
পাদ	-5899
ফার	-5900
স্থ	-5901
হলে	-5902
াদী	-5903
্লে	-5904
▁ঝর	-5905
▁দী	-5906
▁ভূ	-5907
▁মল	-5908
done	-5909
enic	-5910
ised	-5911
onna	-5912
osis	-5913
rant	-5914
rend	-5915
rown	-5916
shat	-5917
stim	-5918
wing	-5919
ঁচার	-5920
তর্ক	-5921
তায়	-5922
হূর্	-5923
াবেন	-5924
াযোগ	-5925
্যাস	-5926
▁Day	-5927
▁GIF	-5928
▁Gro	-5929
▁ear	-5930
▁far	-5931
▁jin	-5932
▁mas	-5933
▁nai	-5934
▁nor	-5935
▁ste	-5936
▁sub	-5937
▁tun	-5938
▁অসা	-5939
▁আসব	-5940
▁আসা	-5941
▁কাছ	-5942
▁ফিট	-5943
▁বিদ	-5944
▁লাল	-5945
▁শপে	-5946
aging	-5947
azzle	-5948
ctory	-5949
holar	-5950
horir	-5951
inter	-5952
night	-5953
ounts	-5954
ratul	-5955
uable	-5956
xiety	-5957
হূর্ত	-5958
াবাদী	-5959
▁Card	-5960
▁Dial	-5961
▁Even	-5962
▁Give	-5963
▁Half	-5964
▁Head	-5965
▁Mela	-5966
▁Mind	-5967
▁Roni	-5968
▁Rush	-5969
▁Were	-5970
▁Yoga	-5971
▁anek	-5972
▁asbe	-5973
▁brow	-5974
▁camp	-5975
▁dial	-5976
▁dilo	-5977
▁ekto	-5978
▁epic	-5979
▁folk	-5980
▁gets	-5981
▁hate	-5982
▁hunt	-5983
▁iron	-5984
▁jani	-5985
▁jate	-5986
▁khao	-5987
▁lane	-5988
▁quiz	-5989
▁runs	-5990
▁sick	-5991
▁আগ্র	-5992
▁এখনও	-5993
▁কমাও	-5994
▁ঘোরা	-5995
▁চিঠি	-5996
▁জাগো	-5997
▁তাতে	-5998
▁দেবে	-5999
▁ধীরে	-6000
▁নাটক	-6001
▁পেলে	-6002
▁বাবা	-6003
▁ভাজা	-6004
▁ভারী	-6005
▁মশলা	-6006
▁যোগা	-6007
▁সেশন	-6008
ficial	-6009
ically	-6010
ipping	-6011
onding	-6012
orical	-6013
shathe	-6014
খানকার	-6015
ঠাট্টা	-6016
ৃঙ্খলা	-6017
▁Click	-6018
▁Final	-6019
▁Lunch	-6020
▁Metro	-6021
▁Shine	-6022
▁Squad	-6023
▁Their	-6024
▁alarm	-6025
▁cause	-6026
▁chase	-6027
▁crank	-6028
▁ditch	-6029
▁ekbar	-6030
▁estim	-6031
▁excus	-6032
▁fried	-6033
▁kinte	-6034
▁lagbe	-6035
▁plane	-6036
▁power	-6037
▁roast	-6038
▁score	-6039
▁semin	-6040
▁skill	-6041
▁stash	-6042
▁trigg	-6043
▁types	-6044
▁vitam	-6045
▁অসম্প	-6046
▁উৎপাদ	-6047
▁এগুলো	-6048
▁কমানো	-6049
▁তোমার	-6050
▁দীর্ঘ	-6051
▁দূরের	-6052
▁পাইনি	-6053
▁বাজেট	-6054
▁শিখছি	-6055
agnosis	-6056
onestly	-6057
ন্তব্যে	-6058
▁Called	-6059
▁Fuchka	-6060
▁Mobile	-6061
▁Review	-6062
▁Safety	-6063
▁Scroll	-6064
▁Select	-6065
▁Shorir	-6066
▁convey	-6067
▁defect	-6068
▁explos	-6069
▁injury	-6070
▁khobor	-6071
▁korlen	-6072
▁kortes	-6073
▁listed	-6074
▁living	-6075
▁method	-6076
▁middle	-6077
▁mother	-6078
▁normal	-6079
▁purono	-6080
▁pushes	-6081
▁simple	-6082
▁stable	-6083
▁tahole	-6084
▁talent	-6085
▁therap	-6086
▁কীভাবে	-6087
▁ডায়েট	-6088
▁পার্টি	-6089
▁পাহাড়	-6090
▁পেঁচার	-6091
▁শেখায়	-6092
▁Deliver	-6093
▁Feeling	-6094
▁Finally	-6095
▁Kitchen	-6096
▁Popcorn	-6097
▁Posting	-6098
▁Regular	-6099
▁anxiety	-6100
▁applied	-6101
▁attacks	-6102
▁charged	-6103
▁jackpot	-6104
▁missing	-6105
▁oneself	-6106
▁patient	-6107
▁অসাধারণ	-6108
▁আশাবাদী	-6109
▁কার্ডিও	-6110
▁ছড়িয়ে	-6111
▁ছবিগুলো	-6112
▁জ্বালাও	-6113
▁নেওয়ার	-6114
▁প্রকল্প	-6115
▁মুহূর্ত	-6116
▁যোগাযোগ	-6117
▁Reaction	-6118
▁anything	-6119
▁blackout	-6120
▁cleaning	-6121
▁ekshathe	-6122
▁enrolled	-6123
▁forecast	-6124
▁haggling	-6125
▁listener	-6126
▁payments	-6127
▁recharge	-6128
▁strength	-6129
▁transfer	-6130
▁valuable	-6131
▁wardrobe	-6132
▁yourself	-6133
▁ক্যাফেতে	-6134
▁গন্তব্যে	-6135
▁দাঁড়ানো	-6136
▁ফ্যাশনের	-6137
▁সেখানকার	-6138
▁addictive	-6139
▁community	-6140
▁congratul	-6141
▁detective	-6142
▁gardening	-6143
▁locksmith	-6144
▁sprouting	-6145
▁traveling	-6146
▁অসম্পূর্ণ	-6147
▁ক্লান্তির	-6148
▁পরবর্তীতে	-6149
▁বিশৃঙ্খলা	-6150
▁Confirming	-6151
▁Exhaustion	-6152
▁guaranteed	-6153
▁historical	-6154
▁hoyechhilo	-6155
▁instructor	-6156
▁refreshing	-6157
▁frustrating	-6158
▁Occasionally	-6159
▁satisfaction	-6160
▁subscription	-6161
▁প্রেজেন্টেশন	-6162
▁relationships	-6163
No	-6164
ub	-6165
চি	-6166
পু	-6167
ফো	-6168
বল	-6169
ব্	-6170
সল	-6171
ূল	-6172
্ম	-6173
abo	-6174
fin	-6175
off	-6176
গের	-6177
ঙ্গ	-6178
চরণ	-6179
টআপ	-6180
টোর	-6181
বাচ	-6182
বাজ	-6183
ষিক	-6184
ুকে	-6185
্রল	-6186
▁AC	-6187
▁Al	-6188
▁La	-6189
▁Sl	-6190
▁ob	-6191
▁wr	-6192
▁এন	-6193
▁ছু	-6194
▁ছে	-6195
▁ডু	-6196
▁দৃ	-6197
▁নো	-6198
▁পদ	-6199
▁বৈ	-6200
▁শখ	-6201
besh	-6202
enue	-6203
iled	-6204
iliz	-6205
iped	-6206
irty	-6207
itha	-6208
lier	-6209
rian	-6210
size	-6211
tems	-6212
uses	-6213
টারি	-6214
টেলে	-6215
ত্যে	-6216
বশেষ	-6217
ষাকষ	-6218
স্তি	-6219
হাসি	-6220
ার্ট	-6221
্ডার	-6222
▁Bag	-6223
▁Cou	-6224
▁Gor	-6225
▁Old	-6226
▁Run	-6227
▁Sun	-6228
▁cir	-6229
▁eng	-6230
▁fle	-6231
▁imm	-6232
▁jom	-6233
▁mix	-6234
▁ney	-6235
▁pot	-6236
▁sle	-6237
▁sta	-6238
▁uth	-6239
▁খান	-6240
▁খুল	-6241
▁গোছ	-6242
▁চিব	-6243
▁ধুম	-6244
▁পের	-6245
▁বুঝ	-6246
▁হাই	-6247
attle	-6248
bbler	-6249
cepts	-6250
chhen	-6251
ghter	-6252
guing	-6253
hanto	-6254
icken	-6255
ining	-6256
overy	-6257
wards	-6258
হার্য	-6259
▁Diet	-6260
▁Dish	-6261
▁Fare	-6262
▁Fire	-6263
▁Hang	-6264
▁Lear	-6265
▁Mars	-6266
▁Rest	-6267
▁Song	-6268
▁Trip	-6269
▁both	-6270
▁fert	-6271
▁film	-6272
▁glad	-6273
▁hold	-6274
▁huge	-6275
▁kill	-6276
▁lose	-6277
▁mark	-6278
▁monk	-6279
▁muri	-6280
▁nail	-6281
▁only	-6282
▁pose	-6283
▁prom	-6284
▁puro	-6285
▁sell	-6286
▁side	-6287
▁situ	-6288
▁till	-6289
▁tola	-6290
▁upor	-6291
▁wasn	-6292
▁অটোর	-6293
▁আগুন	-6294
▁কিনব	-6295
▁খেয়	-6296
▁গরমে	-6297
▁গোসল	-6298
▁চেঁচ	-6299
▁জমাও	-6300
▁জানি	-6301
▁ঝাঁঝ	-6302
▁থেকো	-6303
▁পাতা	-6304
▁পারে	-6305
▁ফেরা	-6306
▁ফ্রে	-6307
▁বলুন	-6308
▁বিড়	-6309
▁বিপদ	-6310
▁মেতে	-6311
▁যাবো	-6312
▁রোমা	-6313
chilam	-6314
forget	-6315
ilizer	-6316
member	-6317
urance	-6318
utions	-6319
verage	-6320
গুলোকে	-6321
াবপত্র	-6322
্রিমিং	-6323
▁Barir	-6324
▁Gotta	-6325
▁Items	-6326
▁Maybe	-6327
▁Movie	-6328
▁Spice	-6329
▁Trend	-6330
▁ajker	-6331
▁along	-6332
▁apply	-6333
▁boshe	-6334
▁crack	-6335
▁dhore	-6336
▁dirty	-6337
▁drain	-6338
▁gonna	-6339
▁rides	-6340
▁rules	-6341
▁sends	-6342
▁sides	-6343
▁steps	-6344
▁tarat	-6345
▁thaka	-6346
▁toiri	-6347
▁venue	-6348
▁world	-6349
▁অতিথি	-6350
▁ওয়ার	-6351
▁কালকে	-6352
▁গরমের	-6353
▁ছড়াও	-6354
▁জামার	-6355
▁ঝাড়ু	-6356
▁থাকতে	-6357
▁পর্যা	-6358
▁ফিটিং	-6359
▁বললেন	-6360
▁ভাবতে	-6361
▁যানজট	-6362
▁রাখার	-6363
▁লাইনে	-6364
▁শুনলে	-6365
▁সন্তু	-6366
▁সামনে	-6367
▁সেটআপ	-6368
estrian	-6369
ত্যেকের	-6370
▁Amader	-6371
▁Assign	-6372
▁Friend	-6373
▁Snacks	-6374
▁causes	-6375
▁common	-6376
▁desert	-6377
▁drinks	-6378
▁enchan	-6379
▁filter	-6380
▁ghurte	-6381
▁giving	-6382
▁guitar	-6383
▁hochhe	-6384
▁issues	-6385
▁jogged	-6386
▁junkie	-6387
▁kachhe	-6388
▁loving	-6389
▁savior	-6390
▁served	-6391
▁shotti	-6392
▁stored	-6393
▁thesis	-6394
▁waster	-6395
▁within	-6396
▁আড্ডার	-6397
▁উপকারী	-6398
▁খেলছিল	-6399
▁চারপাশ	-6400
▁ট্রেনে	-6401
▁ডায়াল	-6402
▁দেখলাম	-6403
▁ধুলোয়	-6404
▁নিজেকে	-6405
▁পড়েছে	-6406
▁রাউটার	-6407
▁সময়সী	-6408
▁সাজানো	-6409
▁স্ক্রল	-6410
▁হোটেলে	-6411
▁Arguing	-6412
▁Message	-6413
▁Scholar	-6414
▁Staying	-6415
▁analyze	-6416
▁buzzing	-6417
▁calling	-6418
▁captive	-6419
▁classes	-6420
▁content	-6421
▁dresses	-6422
▁earlier	-6423
▁express	-6424
▁festive	-6425
▁gobbler	-6426
▁helping	-6427
▁mindful	-6428
▁restart	-6429
▁seminar	-6430
▁spirits	-6431
▁various	-6432
▁wallets	-6433
▁windows	-6434
▁ট্রেনটি	-6435
▁দিচ্ছিল	-6436
▁নিজেদের	-6437
▁প্রেমের	-6438
▁বার্ষিক	-6439
▁শাকসবজি	-6440
▁সাইকেলে	-6441
▁Skipping	-6442
▁analysis	-6443
▁ceremony	-6444
▁chirping	-6445
▁homework	-6446
▁measures	-6447
▁recovery	-6448
▁snoozing	-6449
▁solution	-6450
▁taratari	-6451
▁unforget	-6452
▁অনুষ্ঠান	-6453
▁চেঁচিয়ে	-6454
▁পর্যাপ্ত	-6455
▁বিক্রেতা	-6456
▁হাসাহাসি	-6457
ifications	-6458
▁addiction	-6459
▁commented	-6460
▁deadlines	-6461
▁decorated	-6462
▁discounts	-6463
▁estimated	-6464
▁situation	-6465
▁অপরিহার্য	-6466
▁আসবাবপত্র	-6467
▁জিনিসপত্র	-6468
▁বানিয়েছি	-6469
▁স্ট্রিমিং	-6470
▁Smartphone	-6471
▁activities	-6472
▁completely	-6473
▁completing	-6474
▁fertilizer	-6475
▁impressive	-6476
▁practicing	-6477
▁প্রতিদিনের	-6478
▁প্রত্যেকের	-6479
▁সুন্দরভাবে	-6480
▁anniversary	-6481
▁documentary	-6482
▁negotiation	-6483
▁conversations	-6484
▁unforgettable	-6485
Sp	-6486
co	-6487
iy	-6488
jo	-6489
ঁধ	-6490
ঠো	-6491
তল	-6492
ীত	-6493
েউ	-6494
Not	-6495
act	-6496
adi	-6497
bly	-6498
cer	-6499
dow	-6500
exp	-6501
fid	-6502
gil	-6503
ics	-6504
ima	-6505
ipt	-6506
lit	-6507
lop	-6508
ove	-6509
rao	-6510
tic	-6511
vig	-6512
wel	-6513
কিং	-6514
কেই	-6515
গতি	-6516
জনক	-6517
টাস	-6518
পত্	-6519
রাও	-6520
লের	-6521
লোড	-6522
সার	-6523
হীন	-6524
ানি	-6525
েরণ	-6526
োকো	-6527
▁Pr	-6528
▁Ra	-6529
▁Sw	-6530
▁Wh	-6531
▁bh	-6532
▁tw	-6533
▁ul	-6534
▁wi	-6535
▁আই	-6536
▁ঝল	-6537
▁ভো	-6538
apan	-6539
atig	-6540
atre	-6541
blow	-6542
door	-6543
elax	-6544
enzy	-6545
eter	-6546
face	-6547
hind	-6548
icle	-6549
icra	-6550
ikes	-6551
irms	-6552
kaye	-6553
nfin	-6554
olor	-6555
ores	-6556
rugg	-6557
then	-6558
ying	-6559
চারী	-6560
ণ্টা	-6561
ন্দা	-6562
বিধা	-6563
ম্বা	-6564
র্তি	-6565
লেন্	-6566
সেছি	-6567
হেলা	-6568
াস্ক	-6569
্লান	-6570
▁Amp	-6571
▁Ann	-6572
▁Bad	-6573
▁Bha	-6574
▁Mon	-6575
▁Sur	-6576
▁cre	-6577
▁dam	-6578
▁gen	-6579
▁hur	-6580
▁jol	-6581
▁jot	-6582
▁kar	-6583
▁pal	-6584
▁pri	-6585
▁sip	-6586
▁top	-6587
▁unt	-6588
▁wil	-6589
▁কবে	-6590
▁গাও	-6591
▁নিন	-6592
▁পোজ	-6593
▁লোক	-6594
▁শব্	-6595
▁শেক	-6596
▁শেফ	-6597
▁সার	-6598
▁হেল	-6599
Spicy	-6600
atest	-6601
board	-6602
echhi	-6603
esome	-6604
hance	-6605
honta	-6606
orrow	-6607
ridge	-6608
rious	-6609
tably	-6610
tains	-6611
urate	-6612
uthor	-6613
velop	-6614
কিয়ে	-6615
দ্ধতি	-6616
ম্পার	-6617
▁Back	-6618
▁Comp	-6619
▁Eita	-6620
▁From	-6621
▁Glow	-6622
▁Just	-6623
▁Next	-6624
▁Pani	-6625
▁Pora	-6626
▁Pori	-6627
▁Roam	-6628
▁Task	-6629
▁Team	-6630
▁bags	-6631
▁bomb	-6632
▁bulk	-6633
▁bust	-6634
▁chal	-6635
▁chha	-6636
▁club	-6637
▁dock	-6638
▁each	-6639
▁gate	-6640
▁hits	-6641
▁kaaj	-6642
▁land	-6643
▁mask	-6644
▁maze	-6645
▁mons	-6646
▁past	-6647
▁pawa	-6648
▁snag	-6649
▁spac	-6650
▁suit	-6651
▁supp	-6652
▁sync	-6653
▁tidy	-6654
▁torn	-6655
▁trap	-6656
▁vers	-6657
▁weak	-6658
▁অংশে	-6659
▁অগ্র	-6660
▁কেটে	-6661
▁গানে	-6662
▁জুতো	-6663
▁ডুবে	-6664
▁দয়া	-6665
▁পড়ি	-6666
▁পরিচ	-6667
▁পরিশ	-6668
▁পরের	-6669
▁বলতে	-6670
▁বাইক	-6671
▁বেড়	-6672
▁মাটি	-6673
▁মুদি	-6674
▁মেনে	-6675
▁রাখল	-6676
▁রেগে	-6677
▁হ্যা	-6678
apping	-6679
atigue	-6680
confid	-6681
gilant	-6682
ground	-6683
hentic	-6684
making	-6685
ources	-6686
timate	-6687
িকনির্	-6688
▁Color	-6689
▁Route	-6690
▁Sauce	-6691
▁Tapan	-6692
▁Water	-6693
▁Which	-6694
▁cholo	-6695
▁comes	-6696
▁coord	-6697
▁couch	-6698
▁doesn	-6699
▁drops	-6700
▁ekjon	-6701
▁grand	-6702
▁handw	-6703
▁incon	-6704
▁janen	-6705
▁juicy	-6706
▁kathi	-6707
▁memes	-6708
▁meter	-6709
▁moder	-6710
▁navig	-6711
▁nosed	-6712
▁piles	-6713
▁preca	-6714
▁query	-6715
▁refer	-6716
▁reset	-6717
▁revis	-6718
▁safer	-6719
▁shari	-6720
▁slave	-6721
▁stays	-6722
▁stops	-6723
▁takes	-6724
▁techn	-6725
▁tests	-6726
▁uncle	-6727
▁unexp	-6728
▁valid	-6729
▁words	-6730
▁zeros	-6731
▁আজকাল	-6732
▁একদিন	-6733
▁কলেজে	-6734
▁গুহার	-6735
▁ঘণ্টা	-6736
▁টাস্ক	-6737
▁তাহলে	-6738
▁নগদের	-6739
▁নাচের	-6740
▁নিলাম	-6741
▁পহেলা	-6742
▁ফ্রেশ	-6743
▁বইটির	-6744
▁বাক্স	-6745
▁বাগান	-6746
▁ব্যয়	-6747
▁ভর্তি	-6748
▁ভুলের	-6749
▁মনোরম	-6750
▁মিনিট	-6751
▁ম্লান	-6752
▁যুগের	-6753
▁লজ্জা	-6754
▁লম্বা	-6755
▁শুনতে	-6756
▁সতর্ক	-6757
▁সুখের	-6758
chhilen	-6759
echilam	-6760
লেন্ডার	-6761
▁Advent	-6762
▁Broken	-6763
▁Cinema	-6764
▁Flight	-6765
▁Foodie	-6766
▁Paying	-6767
▁Scenic	-6768
▁Settle	-6769
▁Shanto	-6770
▁Smooth	-6771
▁Spread	-6772
▁Street	-6773
▁Stress	-6774
▁Trendy	-6775
▁atkaye	-6776
▁author	-6777
▁banano	-6778
▁battle	-6779
▁behind	-6780
▁bright	-6781
▁colors	-6782
▁compet	-6783
▁coupon	-6784
▁desire	-6785
▁excuse	-6786
▁frenzy	-6787
▁fridge	-6788
▁memory	-6789
▁nearby	-6790
▁pathao	-6791
▁polish	-6792
▁posing	-6793
▁rakhen	-6794
▁recall	-6795
▁saying	-6796
▁shadow	-6797
▁shokal	-6798
▁target	-6799
▁tastes	-6800
▁though	-6801
▁topics	-6802
▁wasted	-6803
▁অনেকেই	-6804
▁আগ্রহী	-6805
▁করিয়ে	-6806
▁গোছানো	-6807
▁চালানো	-6808
▁জানালা	-6809
▁দরকারি	-6810
▁পদ্ধতি	-6811
▁পানিতে	-6812
▁প্রধান	-6813
▁ফেরতের	-6814
▁বাড়তি	-6815
▁বিড়াল	-6816
▁রিকশার	-6817
▁শিকারী	-6818
▁সমাধান	-6819
▁সর্দার	-6820
▁সুবিধা	-6821
▁সেগুলো	-6822
▁স্কুলে	-6823
▁স্ট্যা	-6824
▁হেলমেট	-6825
▁হেসেছি	-6826
▁Bonding	-6827
▁Cashier	-6828
▁Cutting	-6829
▁Grocery	-6830
▁Heading	-6831
▁Hygiene	-6832
▁Network	-6833
▁Running	-6834
▁Shokale	-6835
▁Through	-6836
▁advisor	-6837
▁bedtime	-6838
▁captain	-6839
▁caption	-6840
▁chicken	-6841
▁develop	-6842
▁dieting	-6843
▁disturb	-6844
▁divided	-6845
▁drifter	-6846
▁editing	-6847
▁enhance	-6848
▁ensured	-6849
▁hunting	-6850
▁include	-6851
▁jekhane	-6852
▁letdown	-6853
▁onboard	-6854
▁parents	-6855
▁parking	-6856
▁picture	-6857
▁prayers	-6858
▁replace	-6859
▁romance	-6860
▁sipping	-6861
▁theatre	-6862
▁therapy	-6863
▁tracker	-6864
▁version	-6865
▁অগ্রগতি	-6866
▁কার্ডের	-6867
▁দিকনির্	-6868
▁দেখেছেন	-6869
▁পড়ুয়া	-6870
▁ফেসবুকে	-6871
▁বাগানের	-6872
▁বাতিলের	-6873
▁বানিয়ে	-6874
▁বাম্পার	-6875
▁মন্তব্য	-6876
▁মোবাইলে	-6877
▁হয়েছেন	-6878
necessary	-6879
nfinished	-6880
▁Festival	-6881
▁Learning	-6882
▁Spending	-6883
▁Tracking	-6884
▁accurate	-6885
▁beverage	-6886
▁champion	-6887
▁clothing	-6888
▁confirms	-6889
▁homemade	-6890
▁overload	-6891
▁poribesh	-6892
▁priority	-6893
▁readings	-6894
▁resident	-6895
▁shortcut	-6896
▁showtime	-6897
▁spacious	-6898
▁suitable	-6899
▁sunlight	-6900
▁supervis	-6901
▁tidiness	-6902
▁trekking	-6903
▁ultimate	-6904
▁vigilant	-6905
▁wishlist	-6906
▁সবজিগুলো	-6907
▁সময়সীমা	-6908
▁সাইকেলের	-6909
confidence	-6910
▁Buffering	-6911
▁Hydration	-6912
▁Tasteless	-6913
▁authentic	-6914
▁collector	-6915
▁interface	-6916
▁passenger	-6917
▁reminding	-6918
▁resources	-6919
▁tradition	-6920
▁আরামদায়ক	-6921
▁উপস্থাপনা	-6922
▁ট্রাফিকের	-6923
▁নির্দেশনা	-6924
▁বার্ষিকীর	-6925
▁লাগিয়েছি	-6926
▁Pedestrian	-6927
▁adventurer	-6928
▁attractive	-6929
▁beneficial	-6930
▁discussing	-6931
▁frustrated	-6932
▁strengthen	-6933
▁unexpected	-6934
▁comfortably	-6935
▁development	-6936
▁handwritten	-6937
▁inspiration	-6938
▁korechhilen	-6939
▁ইন্টারনেটের	-6940
▁ক্যালেন্ডার	-6941
▁পরিচ্ছন্নতা	-6942
▁রেস্টুরেন্ট	-6943
▁লাইব্রেরিতে	-6944
▁স্বাস্থ্যের	-6945
▁Productivity	-6946
▁distractions	-6947
▁entertaining	-6948
▁congratulated	-6949
▁understanding	-6950
jh	-6951
থর	-6952
দম	-6953
বস	-6954
ভা	-6955
লি	-6956
সন	-6957
ুৎ	-6958
ৃত	-6959
োও	-6960
ala	-6961
alg	-6962
app	-6963
asy	-6964
boy	-6965
cks	-6966
ddy	-6967
eds	-6968
ici	-6969
kew	-6970
mit	-6971
wed	-6972
ঁধো	-6973
কাও	-6974
চ্চ	-6975
ঝরা	-6976
ঠাৎ	-6977
নিং	-6978
ফুল	-6979
রিক	-6980
াকা	-6981
াসে	-6982
েলা	-6983
▁Mu	-6984
▁আত	-6985
▁কত	-6986
▁খা	-6987
▁ঘো	-6988
▁জগ	-6989
▁ধৈ	-6990
▁রহ	-6991
▁লি	-6992
ager	-6993
angy	-6994
atly	-6995
cing	-6996
gedy	-6997
hila	-6998
iece	-6999
ites	-7000
long	-7001
mill	-7002
moji	-7003
ojis	-7004
quee	-7005
zzle	-7006
জনের	-7007
ণ্ডা	-7008
নশীল	-7009
ফোরণ	-7010
্যুৎ	-7011
্রোল	-7012
▁Air	-7013
▁Hey	-7014
▁Med	-7015
▁apn	-7016
▁bhi	-7017
▁dar	-7018
▁dog	-7019
▁ele	-7020
▁lab	-7021
▁los	-7022
▁mun	-7023
▁pra	-7024
▁sam	-7025
▁two	-7026
▁করত	-7027
▁চড়	-7028
▁ডাক	-7029
▁দিই	-7030
▁পরও	-7031
▁বদল	-7032
▁বসা	-7033
▁বিভ	-7034
▁বোধ	-7035
▁ভয়	-7036
▁ভাত	-7037
▁মুড	-7038
▁রুম	-7039
▁সবু	-7040
aired	-7041
aring	-7042
hilam	-7043
place	-7044
works	-7045
গ্রাধ	-7046
নিকের	-7047
ন্দরে	-7048
পূর্ণ	-7049
যাস্ত	-7050
সনীয়	-7051
াড়ার	-7052
▁Care	-7053
▁High	-7054
▁Holi	-7055
▁Join	-7056
▁Make	-7057
▁Meal	-7058
▁Pass	-7059
▁Rece	-7060
▁Samp	-7061
▁Show	-7062
▁Sync	-7063
▁Tech	-7064
▁Text	-7065
▁Tour	-7066
▁admi	-7067
▁area	-7068
▁bing	-7069
▁bola	-7070
▁burn	-7071
▁clip	-7072
▁dich	-7073
▁eita	-7074
▁file	-7075
▁hide	-7076
▁horn	-7077
▁jach	-7078
▁jama	-7079
▁jawa	-7080
▁keno	-7081
▁khey	-7082
▁leak	-7083
▁mine	-7084
▁pare	-7085
▁salt	-7086
▁sess	-7087
▁shub	-7088
▁spec	-7089
▁surv	-7090
▁tell	-7091
▁wake	-7092
▁weep	-7093
▁whip	-7094
▁wins	-7095
▁wrap	-7096
▁yell	-7097
▁একদম	-7098
▁ওয়ে	-7099
▁কমবে	-7100
▁কেমন	-7101
▁গুলো	-7102
▁ঝরছে	-7103
▁ঝলমল	-7104
▁ধরলে	-7105
▁নগদে	-7106
▁পথিক	-7107
▁পাথর	-7108
▁ফ্রি	-7109
▁বললে	-7110
▁বেজে	-7111
▁বৈশা	-7112
▁সঙ্গ	-7113
▁স্বা	-7114
▁হঠাৎ	-7115
▁হবেন	-7116
filled	-7117
kewarm	-7118
ording	-7119
ক্তিগত	-7120
ঝরাস্ত	-7121
শান্তি	-7122
ারেন্স	-7123
▁Being	-7124
▁Board	-7125
▁Chaos	-7126
▁Ditch	-7127
▁Later	-7128
▁Meals	-7129
▁Pizza	-7130
▁Place	-7131
▁Reset	-7132
▁Slash	-7133
▁Tired	-7134
▁Where	-7135
▁achen	-7136
▁aware	-7137
▁bored	-7138
▁charm	-7139
▁chief	-7140
▁dekho	-7141
▁dhora	-7142
▁flexi	-7143
▁gener	-7144
▁grass	-7145
▁groan	-7146
▁hoben	-7147
▁jotno	-7148
▁khaoa	-7149
▁lemon	-7150
▁loved	-7151
▁opera	-7152
▁parts	-7153
▁picks	-7154
▁porte	-7155
▁queue	-7156
▁sabai	-7157
▁sandw	-7158
▁scene	-7159
▁solve	-7160
▁sours	-7161
▁spike	-7162
▁waits	-7163
▁wiped	-7164
▁আকাশে	-7165
▁উঠেছে	-7166
▁কার্য	-7167
▁কোনটি	-7168
▁কৌতুক	-7169
▁ক্লিক	-7170
▁খোঁজা	-7171
▁চলেছে	-7172
▁ছাদের	-7173
▁ছায়া	-7174
▁তুলতে	-7175
▁দেখছি	-7176
▁দেরির	-7177
▁ধৈর্য	-7178
▁নেশার	-7179
▁পারবো	-7180
▁বলেছে	-7181
▁বেরোও	-7182
▁ব্যথা	-7183
▁রক্ষা	-7184
▁রহস্য	-7185
▁রাঁধো	-7186
▁সবজির	-7187
▁সুযোগ	-7188
▁হাসতে	-7189
icially	-7190
▁Commun	-7191
▁Latest	-7192
▁Market	-7193
▁Result	-7194
▁Riding	-7195
▁apnake	-7196
▁browse	-7197
▁bundle	-7198
▁career	-7199
▁depart	-7200
▁disapp	-7201
▁emojis	-7202
▁engine	-7203
▁fanboy	-7204
▁gained	-7205
▁highly	-7206
▁intern	-7207
▁jibone	-7208
▁jokhon	-7209
▁khaben	-7210
▁levels	-7211
▁neatly	-7212
▁pandal	-7213
▁refill	-7214
▁scream	-7215
▁settle	-7216
▁sleuth	-7217
▁spikes	-7218
▁starve	-7219
▁switch	-7220
▁অগ্রাধ	-7221
▁অ্যাপে	-7222
▁কাটাতে	-7223
▁ক্লাসে	-7224
▁খেয়াল	-7225
▁চিবানো	-7226
▁ঝাঁকাও	-7227
▁ঠাণ্ডা	-7228
▁পথচারী	-7229
▁পাড়ার	-7230
▁পারিনি	-7231
▁পেরেছি	-7232
▁প্রেরণ	-7233
▁ভাষাটি	-7234
▁শিশুরা	-7235
▁সঙ্গেও	-7236
▁সময়ের	-7237
▁সাইজের	-7238
readmill	-7239
ব্যায়াম	-7240
▁Airport	-7241
▁Colleag	-7242
▁College	-7243
▁Courier	-7244
▁Craving	-7245
▁Crowded	-7246
▁Digital	-7247
▁Discuss	-7248
▁Hangout	-7249
▁Laundry	-7250
▁Poribar	-7251
▁address	-7252
▁advance	-7253
▁awesome	-7254
▁boarded	-7255
▁brishti	-7256
▁changes	-7257
▁chewing	-7258
▁cholche	-7259
▁expects	-7260
▁fitting	-7261
▁flavors	-7262
▁hearing	-7263
▁hitting	-7264
▁muncher	-7265
▁purchas	-7266
▁reality	-7267
▁receipt	-7268
▁selfies	-7269
▁sikhchi	-7270
▁someone	-7271
▁sticker	-7272
▁storage	-7273
▁subject	-7274
▁tragedy	-7275
▁trigger	-7276
▁wearing	-7277
▁winning	-7278
▁কবিতায়	-7279
▁খাবারকে	-7280
▁গানগুলো	-7281
▁চালিয়ে	-7282
▁পরিবেশন	-7283
▁পেট্রোল	-7284
▁পৌঁছাতে	-7285
▁পৌঁছেছে	-7286
▁প্রশংসা	-7287
▁বিদ্যুৎ	-7288
▁বিস্কিট	-7289
▁বৃষ্টির	-7290
▁মিডিয়া	-7291
▁যানজটের	-7292
▁সর্বশেষ	-7293
▁সার্ভিস	-7294
ঝরাস্তায়	-7295
▁Ambiance	-7296
▁Colorful	-7297
▁Finalize	-7298
▁Sampling	-7299
▁Teamwork	-7300
▁achieved	-7301
▁building	-7302
▁compared	-7303
▁confused	-7304
▁dekhechi	-7305
▁dreaming	-7306
▁exciting	-7307
▁experien	-7308
▁fountain	-7309
▁grabbing	-7310
▁handicra	-7311
▁lukewarm	-7312
▁passport	-7313
▁question	-7314
▁remember	-7315
▁repaired	-7316
▁sessions	-7317
▁silently	-7318
▁starving	-7319
▁vitamins	-7320
▁করেছিলাম	-7321
▁জায়গায়	-7322
▁পেয়েছেন	-7323
▁বিস্ফোরণ	-7324
▁ব্যাটারি	-7325
▁ভালোবাসি	-7326
▁রান্নাঘর	-7327
▁according	-7328
▁answering	-7329
▁bargained	-7330
▁connected	-7331
▁diyechhen	-7332
▁encourage	-7333
▁fireworks	-7334
▁insurance	-7335
▁refreshes	-7336
▁wonderful	-7337
▁workplace	-7338
▁অনুষ্ঠানে	-7339
▁কনফারেন্স	-7340
▁জিনিসগুলো	-7341
▁ডেডলাইনের	-7342
▁প্যানিকের	-7343
▁প্রকল্পের	-7344
▁প্রশান্তি	-7345
▁ব্যক্তিগত	-7346
▁রিপোর্টের	-7347
▁সূর্যাস্ত	-7348
▁স্ট্যাটাস	-7349
▁Afterwards	-7350
▁Assignment	-7351
▁conference	-7352
▁everywhere	-7353
▁guarantees	-7354
▁navigation	-7355
▁officially	-7356
▁অগ্রাধিকার	-7357
▁উপস্থাপনার	-7358
▁প্রশংসনীয়	-7359
▁Anniversary	-7360
▁Photography	-7361
▁assignments	-7362
▁celebrating	-7363
▁implemented	-7364
▁shopkeepers	-7365
▁বিমানবন্দরে	-7366
▁মাঝরাস্তায়	-7367
▁যোগব্যায়াম	-7368
▁দিকনির্দেশনা	-7369
▁সাক্ষাৎকারের	-7370
▁Communication	-7371
NG	-7372
Ne	-7373
yo	-7374
চর	-7375
টও	-7376
দী	-7377
বু	-7378
মু	-7379
োধ	-7380
Old	-7381
Tom	-7382
aar	-7383
acc	-7384
aga	-7385
ber	-7386
bha	-7387
din	-7388
ese	-7389
hla	-7390
iba	-7391
imi	-7392
iny	-7393
ism	-7394
man	-7395
mat	-7396
mot	-7397
nda	-7398
not	-7399
ole	-7400
omi	-7401
orb	-7402
ple	-7403
tep	-7404
tor	-7405
ula	-7406
una	-7407
wor	-7408
yle	-7409
zes	-7410
ঙ্ক	-7411
চটা	-7412
চর্	-7413
চাই	-7414
ছাই	-7415
জ্জ	-7416
টিস	-7417
নাল	-7418
য়ী	-7419
লার	-7420
স্ক	-7421
াইন	-7422
াটা	-7423
োরি	-7424
্বল	-7425
▁Av	-7426
▁Cr	-7427
▁HR	-7428
▁Hi	-7429
▁ba	-7430
▁il	-7431
▁উভ	-7432
▁গি	-7433
▁ছি	-7434
▁নব	-7435
▁হা	-7436
Call	-7437
Next	-7438
aked	-7439
cake	-7440
cept	-7441
cert	-7442
cles	-7443
enov	-7444
fits	-7445
fort	-7446
hash	-7447
hero	-7448
hoot	-7449
iyer	-7450
khar	-7451
lies	-7452
nded	-7453
omes	-7454
onge	-7455
onst	-7456
play	-7457
rast	-7458
reed	-7459
ship	-7460
shop	-7461
stru	-7462
teen	-7463
unty	-7464
কারি	-7465
কেশন	-7466
জায়	-7467
টওয়	-7468
তারা	-7469
দ্দী	-7470
ন্ডি	-7471
ন্দন	-7472
বর্ষ	-7473
য়েক	-7474
ার্ম	-7475
াস্ট	-7476
িনার	-7477
োর্ড	-7478
▁CNG	-7479
▁Cle	-7480
▁Hop	-7481
▁Hun	-7482
▁Jam	-7483
▁Nat	-7484
▁Pol	-7485
▁anc	-7486
▁bab	-7487
▁ent	-7488
▁eye	-7489
▁fam	-7490
▁gru	-7491
▁hok	-7492
▁hor	-7493
▁hum	-7494
▁jun	-7495
▁key	-7496
▁lux	-7497
▁maj	-7498
▁mar	-7499
▁mir	-7500
▁nao	-7501
▁nar	-7502
▁sea	-7503
▁spl	-7504
▁toy	-7505
▁ইতি	-7506
▁উড়	-7507
▁এলা	-7508
▁ওঠো	-7509
▁ক্ষ	-7510
▁ঝাম	-7511
▁টেক	-7512
▁দুই	-7513
▁দেন	-7514
▁নগদ	-7515
▁নেব	-7516
▁বোন	-7517
▁ভরো	-7518
▁মার	-7519
▁লুক	-7520
▁হেঁ	-7521
Focus	-7522
adget	-7523
adium	-7524
allet	-7525
antic	-7526
barak	-7527
cheye	-7528
ckets	-7529
count	-7530
gling	-7531
ician	-7532
iment	-7533
inate	-7534
iring	-7535
istic	-7536
lying	-7537
oomed	-7538
order	-7539
quito	-7540
rable	-7541
range	-7542
redit	-7543
romas	-7544
useum	-7545
ushed	-7546
welry	-7547
গানের	-7548
চর্চা	-7549
ন্ত্র	-7550
পত্তা	-7551
প্তচর	-7552
্যানে	-7553
▁Biba	-7554
▁Chai	-7555
▁Deal	-7556
▁Fish	-7557
▁Lazy	-7558
▁Long	-7559
▁Loud	-7560
▁Nail	-7561
▁Scan	-7562
▁Tell	-7563
▁Test	-7564
▁aunt	-7565
▁beha	-7566
▁bhir	-7567
▁blow	-7568
▁bore	-7569
▁bujh	-7570
▁chug	-7571
▁chup	-7572
▁clic	-7573
▁code	-7574
▁deri	-7575
▁else	-7576
▁form	-7577
▁genu	-7578
▁hype	-7579
▁kids	-7580
▁koto	-7581
▁lags	-7582
▁maja	-7583
▁mela	-7584
▁neya	-7585
▁pile	-7586
▁pran	-7587
▁rakh	-7588
▁rare	-7589
▁rast	-7590
▁same	-7591
▁scoo	-7592
▁soap	-7593
▁spin	-7594
▁tale	-7595
▁tune	-7596
▁visa	-7597
▁wild	-7598
▁writ	-7599
▁আচরণ	-7600
▁আছেন	-7601
▁ওষুধ	-7602
▁কখনো	-7603
▁গেমস	-7604
▁চারা	-7605
▁ছেলে	-7606
▁জগিং	-7607
▁দুর্	-7608
▁পত্র	-7609
▁পর্য	-7610
▁বদলে	-7611
▁মলিন	-7612
▁রাজি	-7613
▁রুটি	-7614
▁লেগে	-7615
▁সসের	-7616
▁সিটে	-7617
▁স্টা	-7618
▁হেসে	-7619
Boring	-7620
actory	-7621
alling	-7622
ariety	-7623
encing	-7624
estyle	-7625
market	-7626
onstop	-7627
ouched	-7628
pdates	-7629
rupted	-7630
school	-7631
teller	-7632
চ্চারা	-7633
জ্জ্বল	-7634
নশীলতা	-7635
ন্দরটি	-7636
িয়ানি	-7637
▁Avoid	-7638
▁Biyer	-7639
▁Boost	-7640
▁Buyer	-7641
▁Chase	-7642
▁Dress	-7643
▁Emoji	-7644
▁Ended	-7645
▁Guide	-7646
▁Hello	-7647
▁Light	-7648
▁Piled	-7649
▁Shila	-7650
▁Stret	-7651
▁ashte	-7652
▁asole	-7653
▁block	-7654
▁bloom	-7655
▁buddy	-7656
▁burst	-7657
▁cakes	-7658
▁child	-7659
▁cries	-7660
▁crisp	-7661
▁dilam	-7662
▁foods	-7663
▁grows	-7664
▁hoard	-7665
▁iccha	-7666
▁ilish	-7667
▁jonyo	-7668
▁khele	-7669
▁kicks	-7670
▁loser	-7671
▁mater	-7672
▁piece	-7673
▁poreo	-7674
▁pouch	-7675
▁rasta	-7676
▁renov	-7677
▁risky	-7678
▁sales	-7679
▁shikh	-7680
▁shona	-7681
▁smell	-7682
▁snaps	-7683
▁swipe	-7684
▁tangy	-7685
▁teach	-7686
▁tense	-7687
▁thaki	-7688
▁toast	-7689
▁trust	-7690
▁utsob	-7691
▁write	-7692
▁অপরের	-7693
▁উদ্দী	-7694
▁উভয়ই	-7695
▁কয়েক	-7696
▁কাটার	-7697
▁খুঁজো	-7698
▁খোঁজো	-7699
▁গানের	-7700
▁চেকআপ	-7701
▁ডিনার	-7702
▁তুললে	-7703
▁দিনটা	-7704
▁নিজেই	-7705
▁পাশের	-7706
▁পূজার	-7707
▁পেয়ে	-7708
▁ফুটবল	-7709
▁ফুটবে	-7710
▁বজায়	-7711
▁বলবেন	-7712
▁বাছাই	-7713
▁বৈশাখ	-7714
▁বোর্ড	-7715
▁যাচাই	-7716
▁রংচটা	-7717
▁শেফের	-7718
▁হাস্য	-7719
▁হোস্ট	-7720
blowing	-7721
cutting	-7722
grapher	-7723
istered	-7724
tending	-7725
স্তারিত	-7726
্যাকটিস	-7727
্রান্তি	-7728
▁Dekhte	-7729
▁Faulty	-7730
▁Lights	-7731
▁Posted	-7732
▁Recent	-7733
▁Resort	-7734
▁Rocked	-7735
▁Slides	-7736
▁Wallet	-7737
▁Weight	-7738
▁agreed	-7739
▁aromas	-7740
▁banabo	-7741
▁busted	-7742
▁byayam	-7743
▁camper	-7744
▁chores	-7745
▁contin	-7746
▁dariye	-7747
▁dazzle	-7748
▁device	-7749
▁dramat	-7750
▁faulty	-7751
▁glitch	-7752
▁hoping	-7753
▁ignite	-7754
▁ignore	-7755
▁ironed	-7756
▁jungle	-7757
▁mathay	-7758
▁mirror	-7759
▁moshla	-7760
▁mosque	-7761
▁narrow	-7762
▁others	-7763
▁overhe	-7764
▁oversp	-7765
▁paying	-7766
▁puzzle	-7767
▁rakhte	-7768
▁rented	-7769
▁resume	-7770
▁roller	-7771
▁runner	-7772
▁search	-7773
▁shonge	-7774
▁statue	-7775
▁stocks	-7776
▁tablet	-7777
▁thanda	-7778
▁tomato	-7779
▁tyrant	-7780
▁veggie	-7781
▁অর্জনে	-7782
▁ঝামেলা	-7783
▁ঠিকমতো	-7784
▁দরদামে	-7785
▁দেখবেন	-7786
▁নববর্ষ	-7787
▁পড়বেন	-7788
▁পিজ্জা	-7789
▁প্রথমে	-7790
▁প্রশ্ন	-7791
▁ফাইনাল	-7792
▁বার্তা	-7793
▁মানসিক	-7794
▁লাগছিল	-7795
▁লাগানো	-7796
▁লিখেছি	-7797
▁সফটওয়	-7798
▁স্টোরি	-7799
lessness	-7800
ountains	-7801
▁Bibahor	-7802
▁Booking	-7803
▁Forward	-7804
▁Keeping	-7805
▁Monitor	-7806
▁Mubarak	-7807
▁Quality	-7808
▁Tickets	-7809
▁ancient	-7810
▁arrival	-7811
▁backlog	-7812
▁becomes	-7813
▁benefit	-7814
▁blanket	-7815
▁canteen	-7816
▁chharao	-7817
▁comfort	-7818
▁craving	-7819
▁cricket	-7820
▁customi	-7821
▁cutting	-7822
▁display	-7823
▁genuine	-7824
▁happens	-7825
▁jewelry	-7826
▁lightly	-7827
▁mission	-7828
▁nothing	-7829
▁outdoor	-7830
▁outfits	-7831
▁outings	-7832
▁overall	-7833
▁peyechi	-7834
▁picking	-7835
▁pouchhe	-7836
▁praised	-7837
▁reduced	-7838
▁related	-7839
▁replies	-7840
▁scanner	-7841
▁speaker	-7842
▁stadium	-7843
▁tracked	-7844
▁trapper	-7845
▁uninter	-7846
▁washing	-7847
▁writing	-7848
▁অ্যাপটি	-7849
▁কনফার্ম	-7850
▁কাজগুলো	-7851
▁খুঁজেছি	-7852
▁গবেষণার	-7853
▁গল্পবাজ	-7854
▁গুপ্তচর	-7855
▁দোকানের	-7856
▁পড়েছেন	-7857
▁পরিশ্রম	-7858
▁ফিরিয়ে	-7859
▁বিমানটি	-7860
▁বেড়েছে	-7861
▁লাগেজটি	-7862
▁শিশুদের	-7863
▁স্বাদের	-7864
diagnosis	-7865
ssentials	-7866
▁Applying	-7867
▁Chatting	-7868
▁Haggling	-7869
▁Maintain	-7870
▁activate	-7871
▁annoying	-7872
▁behavior	-7873
▁clicking	-7874
▁concepts	-7875
▁distance	-7876
▁electron	-7877
▁explored	-7878
▁hoyechhi	-7879
▁immunity	-7880
▁interior	-7881
▁material	-7882
▁mosquito	-7883
▁notebook	-7884
▁operator	-7885
▁recalled	-7886
▁settings	-7887
▁stickers	-7888
▁stronger	-7889
▁talented	-7890
▁visiting	-7891
▁workshop	-7892
▁অনেকক্ষণ	-7893
▁অভিনন্দন	-7894
▁গবেষণাটি	-7895
▁ট্রেন্ডি	-7896
▁তারাগুলো	-7897
▁পাহাড়ের	-7898
▁প্রোজেক্	-7899
▁বাচ্চারা	-7900
▁ভালোবাসা	-7901
▁সন্তুষ্ট	-7902
accination	-7903
▁Nightlong	-7904
▁Recalling	-7905
▁Scattered	-7906
▁alternate	-7907
▁direction	-7908
▁healthier	-7909
▁inspiring	-7910
▁lifestyle	-7911
▁marketing	-7912
▁memorable	-7913
▁motivated	-7914
▁nutrition	-7915
▁practical	-7916
▁published	-7917
▁somewhere	-7918
▁superhero	-7919
▁superstar	-7920
▁ক্লাসগুলো	-7921
▁নিরাপত্তা	-7922
▁বিমানটিতে	-7923
▁বিরিয়ানি	-7924
▁বিস্তারিত	-7925
▁ব্যাটারিও	-7926
▁ল্যাপটপের	-7927
▁শরীরচর্চা	-7928
▁সুবিধাজনক	-7929
▁Essentials	-7930
▁congestion	-7931
▁considered	-7932
▁directions	-7933
▁experiment	-7934
▁explosions	-7935
▁kortesilam	-7936
▁membership	-7937
▁nutritious	-7938
▁passengers	-7939
▁photoshoot	-7940
▁registered	-7941
▁renovation	-7942
▁প্র্যাকটিস	-7943
▁ফটোগ্রাফার	-7944
▁বিভ্রান্তি	-7945
▁সফটওয়্যার	-7946
▁alternative	-7947
▁competition	-7948
▁concentrate	-7949
▁precautions	-7950
▁traditional	-7951
▁unnecessary	-7952
▁ডকুমেন্টারি	-7953
▁Carelessness	-7954
▁conferencing	-7955
▁inconvenient	-7956
▁overspending	-7957
▁satisfactory	-7958
▁বিমানবন্দরটি	-7959
▁uninterrupted	-7960
Go	-7961
go	-7962
kn	-7963
po	-7964
uc	-7965
উন	-7966
খু	-7967
ণা	-7968
ফল	-7969
ভে	-7970
লু	-7971
সূ	-7972
ুঁ	-7973
োল	-7974
abe	-7975
ain	-7976
aka	-7977
apt	-7978
arn	-7979
cho	-7980
eat	-7981
eon	-7982
ero	-7983
esh	-7984
esm	-7985
hab	-7986
ime	-7987
irs	-7988
obe	-7989
osh	-7990
ued	-7991
ump	-7992
weg	-7993
ংরা	-7994
কুট	-7995
কেজ	-7996
ক্র	-7997
চলা	-7998
ছেন	-7999
জিট	-8000
টনা	-8001
নেস	-8002
পনা	-8003
পুট	-8004
ভাত	-8005
মিক	-8006
মূল	-8007
য়ও	-8008
যাপ	-8009
রণে	-8010
র্ট	-8011
ষ্ক	-8012
হ্ব	-8013
িক্	-8014
োটর	-8015
্লগ	-8016
ৎজা	-8017
▁DM	-8018
▁Di	-8019
▁Op	-8020
▁Vi	-8021
▁অব	-8022
▁আছ	-8023
▁এগ	-8024
▁চম	-8025
Game	-8026
Nice	-8027
ared	-8028
arks	-8029
atus	-8030
char	-8031
chur	-8032
cide	-8033
cook	-8034
ddhe	-8035
elam	-8036
elds	-8037
exam	-8038
flow	-8039
gami	-8040
gsho	-8041
hose	-8042
hydr	-8043
ific	-8044
ikha	-8045
ilak	-8046
ires	-8047
ives	-8048
kash	-8049
laim	-8050
loor	-8051
miye	-8052
otic	-8053
pped	-8054
teer	-8055
tsav	-8056
ured	-8057
weak	-8058
wood	-8059
ক্ষে	-8060
খুশি	-8061
গড়ে	-8062
ঙ্গল	-8063
তাটি	-8064
বহুল	-8065
বাচন	-8066
লায়	-8067
ারণা	-8068
ুঁকি	-8069
ুদ্র	-8070
ুস্থ	-8071
োরার	-8072
▁Act	-8073
▁Bec	-8074
▁Cam	-8075
▁Fit	-8076
▁Fru	-8077
▁Inc	-8078
▁Per	-8079
▁See	-8080
▁Tai	-8081
▁Why	-8082
▁baz	-8083
▁def	-8084
▁doc	-8085
▁dou	-8086
▁ese	-8087
▁giy	-8088
▁ich	-8089
▁inf	-8090
▁khu	-8091
▁mom	-8092
▁mut	-8093
▁niy	-8094
▁oil	-8095
▁pen	-8096
▁pig	-8097
▁sar	-8098
▁shy	-8099
▁ten	-8100
▁ter	-8101
▁tou	-8102
▁uts	-8103
▁আরো	-8104
▁কেউ	-8105
▁খাই	-8106
▁চোর	-8107
▁ঝোল	-8108
▁ডিম	-8109
▁দরক	-8110
▁ফলে	-8111
▁ফলো	-8112
▁ফুড	-8113
▁বাজ	-8114
▁ভূত	-8115
▁মাই	-8116
▁মেট	-8117
▁রয়	-8118
▁শহর	-8119
▁সুর	-8120
▁হবি	-8121
Where	-8122
algun	-8123
ample	-8124
andal	-8125
arnia	-8126
ayama	-8127
brant	-8128
esmer	-8129
estro	-8130
itate	-8131
known	-8132
leted	-8133
marks	-8134
othes	-8135
pdate	-8136
plore	-8137
ually	-8138
uting	-8139
উনলোড	-8140
জিটাল	-8141
ণ্ডার	-8142
তিহাস	-8143
দ্রার	-8144
ন্ডেল	-8145
বাইকে	-8146
বারিক	-8147
ষাকষি	-8148
হ্বান	-8149
িন্দা	-8150
্রতিক	-8151
্লেষণ	-8152
▁Body	-8153
▁Busy	-8154
▁Cust	-8155
▁Dist	-8156
▁Dust	-8157
▁Hill	-8158
▁Kali	-8159
▁Kobe	-8160
▁Live	-8161
▁Oita	-8162
▁Pres	-8163
▁Shob	-8164
▁Skip	-8165
▁Stop	-8166
▁With	-8167
▁ashe	-8168
▁boat	-8169
▁dark	-8170
▁deoa	-8171
▁dike	-8172
▁dile	-8173
▁ease	-8174
▁educ	-8175
▁ekti	-8176
▁ghor	-8177
▁jome	-8178
▁laun	-8179
▁left	-8180
▁link	-8181
▁lone	-8182
▁loop	-8183
▁mild	-8184
▁neon	-8185
▁nije	-8186
▁oily	-8187
▁pabo	-8188
▁pach	-8189
▁pull	-8190
▁pure	-8191
▁race	-8192
▁roam	-8193
▁role	-8194
▁seem	-8195
▁sens	-8196
▁serv	-8197
▁slot	-8198
▁soot	-8199
▁swap	-8200
▁taka	-8201
▁tort	-8202
▁unop	-8203
▁vote	-8204
▁word	-8205
▁অপ্র	-8206
▁আর্ট	-8207
▁আসতে	-8208
▁আসলে	-8209
▁খেলো	-8210
▁গ্রা	-8211
▁ঘোরো	-8212
▁চাঁদ	-8213
▁চালু	-8214
▁চিনি	-8215
▁ছাতা	-8216
▁জাগে	-8217
▁জুতা	-8218
▁পাবে	-8219
▁ফাটা	-8220
▁বইছে	-8221
▁ব্রে	-8222
▁ব্লগ	-8223
▁ভিজে	-8224
▁মনের	-8225
▁মাথা	-8226
▁মুছে	-8227
▁মোটর	-8228
▁লিখে	-8229
▁শারী	-8230
▁শীতল	-8231
▁শুনি	-8232
▁সবুজ	-8233
▁সেবা	-8234
arison	-8235
cceeds	-8236
change	-8237
cooked	-8238
curity	-8239
ichuri	-8240
iently	-8241
minton	-8242
orbike	-8243
queeze	-8244
unteer	-8245
নায়াম	-8246
ন্ডফুল	-8247
্যায়ন	-8248
▁Agami	-8249
▁Bhaip	-8250
▁Class	-8251
▁Clean	-8252
▁Crack	-8253
▁Early	-8254
▁Event	-8255
▁Floor	-8256
▁Fried	-8257
▁Funny	-8258
▁Heart	-8259
▁Natun	-8260
▁Plant	-8261
▁Queue	-8262
▁Relax	-8263
▁Short	-8264
▁Songs	-8265
▁Speed	-8266
▁Spicy	-8267
▁Stage	-8268
▁alone	-8269
▁angry	-8270
▁binge	-8271
▁bless	-8272
▁blind	-8273
▁crush	-8274
▁deser	-8275
▁diary	-8276
▁drown	-8277
▁elder	-8278
▁error	-8279
▁explo	-8280
▁fests	-8281
▁fiend	-8282
▁fiery	-8283
▁glued	-8284
▁gotta	-8285
▁grown	-8286
▁haven	-8287
▁hills	-8288
▁holeo	-8289
▁human	-8290
▁jinis	-8291
▁kajer	-8292
▁karon	-8293
▁khule	-8294
▁obost	-8295
▁optim	-8296
▁paben	-8297
▁panda	-8298
▁pause	-8299
▁quote	-8300
▁rolls	-8301
▁samne	-8302
▁since	-8303
▁sinks	-8304
▁sport	-8305
▁squad	-8306
▁staff	-8307
▁tanks	-8308
▁thing	-8309
▁tilak	-8310
▁tomar	-8311
▁value	-8312
▁worse	-8313
▁অ্যাস	-8314
▁ইনপুট	-8315
▁এনেছে	-8316
▁কাজটা	-8317
▁খুললে	-8318
▁গানটি	-8319
▁গেছেন	-8320
▁গেমের	-8321
▁ঘুরলে	-8322
▁ঘোরার	-8323
▁চলছিল	-8324
▁ছাড়ো	-8325
▁ছিলাম	-8326
▁ঝুঁকি	-8327
▁টাকার	-8328
▁ডেস্ক	-8329
▁থাকেন	-8330
▁দেখাও	-8331
▁ধারণা	-8332
▁নোংরা	-8333
▁পানির	-8334
▁পিৎজা	-8335
▁ফুললে	-8336
▁বাসার	-8337
▁বুঝতে	-8338
▁মঙ্গল	-8339
▁মস্তি	-8340
▁যুদ্ধ	-8341
▁রক্ষণ	-8342
▁রুটিন	-8343
▁লাগলো	-8344
▁সাম্প	-8345
▁স্কুল	-8346
▁স্টাফ	-8347
itering	-8348
logical	-8349
তিহাসিক	-8350
াবেক্ষণ	-8351
▁Backup	-8352
▁Bazaar	-8353
▁Camera	-8354
▁Comple	-8355
▁Decide	-8356
▁Falgun	-8357
▁Finish	-8358
▁Fruits	-8359
▁Having	-8360
▁Narnia	-8361
▁Outing	-8362
▁Pandal	-8363
▁School	-8364
▁Should	-8365
▁Status	-8366
▁Switch	-8367
▁Timing	-8368
▁Trying	-8369
▁achhen	-8370
▁acting	-8371
▁barter	-8372
▁begins	-8373
▁chaben	-8374
▁closed	-8375
▁create	-8376
▁credit	-8377
▁dances	-8378
▁dehydr	-8379
▁divide	-8380
▁ekhono	-8381
▁eseche	-8382
▁expert	-8383
▁fields	-8384
▁fixing	-8385
▁gadget	-8386
▁hiking	-8387
▁inside	-8388
▁invite	-8389
▁jinish	-8390
▁lively	-8391
▁locate	-8392
▁loudly	-8393
▁mesmer	-8394
▁moddhe	-8395
▁motion	-8396
▁pigeon	-8397
▁revise	-8398
▁reward	-8399
▁riding	-8400
▁routes	-8401
▁rushes	-8402
▁shares	-8403
▁shekha	-8404
▁shikha	-8405
▁shobar	-8406
▁stroll	-8407
▁sundor	-8408
▁thread	-8409
▁volume	-8410
▁অসুস্থ	-8411
▁আহ্বান	-8412
▁উৎসবের	-8413
▁এগিয়ে	-8414
▁এলাকার	-8415
▁গ্রহণে	-8416
▁চালালে	-8417
▁নাশতার	-8418
▁নির্মল	-8419
▁নীরবতা	-8420
▁পৌঁছাব	-8421
▁ফেসবুক	-8422
▁বইয়ের	-8423
▁বিগড়ে	-8424
▁মজাহীন	-8425
▁ম্যানে	-8426
▁রয়েছে	-8427
▁সঙ্গীত	-8428
▁সময়টা	-8429
▁সমুদ্র	-8430
▁হাঁটার	-8431
▁হাইকিং	-8432
▁হাওয়া	-8433
ractions	-8434
য়োজনীয়	-8435
াইনমেন্ট	-8436
▁Because	-8437
▁Clothes	-8438
▁Explore	-8439
▁Fitness	-8440
▁Hydrate	-8441
▁Journey	-8442
▁Packing	-8443
▁Playing	-8444
▁Plumber	-8445
▁Sending	-8446
▁Technic	-8447
▁Waiting	-8448
▁Walking	-8449
▁classic	-8450
▁concert	-8451
▁consult	-8452
▁consume	-8453
▁dekhlam	-8454
▁deleted	-8455
▁demands	-8456
▁designs	-8457
▁diyeche	-8458
▁emailed	-8459
▁enchant	-8460
▁esheche	-8461
▁fatigue	-8462
▁fighter	-8463
▁finally	-8464
▁gaining	-8465
▁giyechi	-8466
▁handled	-8467
▁holding	-8468
▁inspire	-8469
▁laundry	-8470
▁pushing	-8471
▁raining	-8472
▁reflect	-8473
▁regular	-8474
▁resolve	-8475
▁returns	-8476
▁roaming	-8477
▁screams	-8478
▁sellers	-8479
▁sending	-8480
▁staying	-8481
▁stretch	-8482
▁torture	-8483
▁turning	-8484
▁variety	-8485
▁vendors	-8486
▁villain	-8487
▁অভিনয়ও	-8488
▁উৎসাহের	-8489
▁একদিনের	-8490
▁ওয়েটার	-8491
▁কোর্সটি	-8492
▁ঘুমানোর	-8493
▁জন্মদিন	-8494
▁জায়গার	-8495
▁ডাউনলোড	-8496
▁ডিজিটাল	-8497
▁তাকিয়ে	-8498
▁নিদ্রার	-8499
▁প্যাকেজ	-8500
▁প্রেমিক	-8501
▁বিরক্তি	-8502
▁বিস্কুট	-8503
▁ভাণ্ডার	-8504
▁রোমান্স	-8505
▁শারীরিক	-8506
▁সূর্যের	-8507
▁হোটেলের	-8508
ন্ডফুলনেস	-8509
▁Activity	-8510
▁Catching	-8511
▁Complete	-8512
▁Customer	-8513
▁Discount	-8514
▁Honestly	-8515
▁Ignoring	-8516
▁changing	-8517
▁customiz	-8518
▁election	-8519
▁flexible	-8520
▁holidays	-8521
▁honestly	-8522
▁inspired	-8523
▁inspires	-8524
▁launched	-8525
▁meditate	-8526
▁nosedive	-8527
▁potatoes	-8528
▁presence	-8529
▁romantic	-8530
▁sandwich	-8531
▁starting	-8532
▁succeeds	-8533
▁unopened	-8534
▁updating	-8535
▁urgently	-8536
▁workload	-8537
▁আপ্যায়ন	-8538
▁উত্তেজিত	-8539
▁উদ্দীপনা	-8540
▁উপস্থাপন	-8541
▁জায়গাটি	-8542
▁জ্বালানি	-8543
▁জ্বালালে	-8544
▁নিয়েছেন	-8545
▁নির্বাচন	-8546
▁বাড়িয়ে	-8547
▁বাসিন্দা	-8548
▁বিশ্লেষণ	-8549
▁মস্তিষ্ক	-8550
▁মোমবাতির	-8551
▁সঠিকভাবে	-8552
▁সার্ভিসে	-8553
▁সাহায্যও	-8554
▁হাঁটাচলা	-8555
▁Attending	-8556
▁Confirmed	-8557
▁Reception	-8558
▁badminton	-8559
▁cancelled	-8560
▁childhood	-8561
▁departure	-8562
▁effective	-8563
▁improving	-8564
▁landmarks	-8565
▁loitering	-8566
▁motorbike	-8567
▁pranayama	-8568
▁presented	-8569
▁purchases	-8570
▁shobcheye	-8571
▁technical	-8572
▁thrilling	-8573
▁treadmill	-8574
▁untouched	-8575
▁volunteer	-8576
▁পারিবারিক	-8577
▁প্রোজেক্ট	-8578
▁ফটোগ্রাফি	-8579
▁মোটরবাইকে	-8580
▁যাচ্ছিলাম	-8581
▁সম্পর্ককে	-8582
▁Adventurer	-8583
▁Bhaiphonta	-8584
▁Colleagues	-8585
▁Completing	-8586
▁Everything	-8587
▁Incomplete	-8588
▁Meditation	-8589
▁background	-8590
▁collection	-8591
▁comparison	-8592
▁complained	-8593
▁confirming	-8594
▁dehydrated	-8595
▁handicraft	-8596
▁impossible	-8597
▁optimistic	-8598
▁organizing	-8599
▁পড়াশোনায়	-8600
▁প্রানায়াম	-8601
▁বিক্রেতারা	-8602
▁সাম্প্রতিক	-8603
▁Interviewer	-8604
▁Storyteller	-8605
▁appreciated	-8606
▁decorations	-8607
▁educational	-8608
▁electrician	-8609
▁interviewer	-8610
▁mindfulness	-8611
▁strengthens	-8612
▁supermarket	-8613
▁উৎপাদনশীলতা	-8614
▁বিক্রেতাদের	-8615
▁Distractions	-8616
▁Photographer	-8617
▁Prescription	-8618
▁motivational	-8619
▁relationship	-8620
▁অপ্রয়োজনীয়	-8621
▁মাইন্ডফুলনেস	-8622
▁রক্ষণাবেক্ষণ	-8623
▁লক্ষ্যগুলোকে	-8624
▁Notifications	-8625
▁documentation	-8626
▁technological	-8627
▁অ্যাসাইনমেন্ট	-8628
▁আসবাবপত্রগুলো	-8629
Da	-8630
MD	-8631
SA	-8632
TM	-8633
dh	-8634
np	-8635
pr	-8636
rp	-8637
uk	-8638
wk	-8639
আউ	-8640
ইন	-8641
কম	-8642
কস	-8643
গ্	-8644
চই	-8645
ছা	-8646
হল	-8647
াগ	-8648
ুই	-8649
্ক	-8650
ৎস	-8651
Run	-8652
The	-8653
Why	-8654
ada	-8655
arf	-8656
aur	-8657
ays	-8658
bMD	-8659
car	-8660
col	-8661
cue	-8662
dio	-8663
dra	-8664
els	-8665
esa	-8666
eta	-8667
fol	-8668
fto	-8669
hel	-8670
hok	-8671
how	-8672
ids	-8673
ify	-8674
iqu	-8675
jar	-8676
kal	-8677
lag	-8678
mpt	-8679
nam	-8680
ons	-8681
ors	-8682
pos	-8683
rag	-8684
tal	-8685
tei	-8686
yoj	-8687
আউট	-8688
গার	-8689
গ্ধ	-8690
টেম	-8691
ড়ি	-8692
দিস	-8693
নিক	-8694
পরি	-8695
বেদ	-8696
ভাব	-8697
ভার	-8698
ষণ্	-8699
থন	-8700
box	-8701
iot	-8702
kom	-8703
ped	-8704
র্থ	-8705
সঙ্	-8706
সবে	-8707
িৎস	-8708
োধন	-8709
▁Aj	-8710
▁Br	-8711
▁Is	-8712
▁Lu	-8713
▁ts	-8714
▁উদ	-8715
▁খি	-8716
▁ঝি	-8717
▁তৃ	-8718
▁দৈ	-8719
▁ধো	-8720
▁নী	-8721
▁বছ	-8722
▁রস	-8723
▁সো	-8724
▁হজ	-8725
Diet	-8726
Ebar	-8727
Slow	-8728
aben	-8729
abor	-8730
ades	-8731
aged	-8732
ages	-8733
agga	-8734
aign	-8735
atar	-8736
ceed	-8737
chit	-8738
ddle	-8739
dist	-8740
draw	-8741
elod	-8742
gers	-8743
gles	-8744
goll	-8745
hail	-8746
hane	-8747
harp	-8748
hene	-8749
high	-8750
hure	-8751
iate	-8752
imax	-8753
iner	-8754
ipes	-8755
ista	-8756
istr	-8757
ithu	-8758
ivor	-8759
jack	-8760
kill	-8761
krit	-8762
lost	-8763
lugg	-8764
mail	-8765
mess	-8766
more	-8767
moto	-8768
mula	-8769
olik	-8770
onds	-8771
orry	-8772
outh	-8773
path	-8774
peci	-8775
rait	-8776
rike	-8777
rote	-8778
scar	-8779
tead	-8780
term	-8781
ters	-8782
tsob	-8783
utor	-8784
well	-8785
whel	-8786
অ্যা	-8787
ওয়ে	-8788
কায়	-8789
কেছি	-8790
ক্সে	-8791
ছেছে	-8792
টনার	-8793
টিনে	-8794
টিফি	-8795
টেছি	-8796
দিকে	-8797
ন্তত	-8798
পুরি	-8799
law	-8800
oth	-8801
stor	-8802
বাচক	-8803
মাতে	-8804
মূলক	-8805
যাপন	-8806
লাহল	-8807
ল্যা	-8808
শীলন	-8809
ষণ্ণ	-8810
সূচি	-8811
সেবে	-8812
স্টে	-8813
স্যু	-8814
হারা	-8815
ার্ত	-8816
ৃতজ্	-8817
্রয়	-8818
্লাড	-8819
▁ATM	-8820
▁Bur	-8821
▁Doc	-8822
▁Dro	-8823
▁Ice	-8824
▁Ing	-8825
▁Man	-8826
▁Pet	-8827
▁Raw	-8828
▁Rea	-8829
▁Sok	-8830
▁Spy	-8831
▁Tui	-8832
▁Win	-8833
▁ant	-8834
▁baj	-8835
▁coo	-8836
▁cow	-8837
▁cru	-8838
▁cul	-8839
▁cur	-8840
▁dan	-8841
▁dod	-8842
▁fog	-8843
▁gol	-8844
▁gre	-8845
▁hon	-8846
▁lok	-8847
▁nan	-8848
▁obs	-8849
▁pod	-8850
▁ran	-8851
▁rat	-8852
▁sap	-8853
▁sir	-8854
▁son	-8855
▁tim	-8856
▁tip	-8857
▁unp	-8858
▁veh	-8859
▁why	-8860
▁wow	-8861
▁wre	-8862
▁zoo	-8863
▁আলু	-8864
▁আসর	-8865
▁ওজন	-8866
▁কাঁ	-8867
▁চিক	-8868
▁ঝরে	-8869
▁তবু	-8870
▁দাগ	-8871
▁দাদ	-8872
▁ফুঁ	-8873
▁বয়	-8874
▁বলি	-8875
▁ভেব	-8876
▁মেঘ	-8877
▁ম্য	-8878
▁রিং	-8879
▁রেট	-8880
▁লোভ	-8881
▁সংর	-8882
▁সংশ	-8883
▁সবচ	-8884
Meter	-8885
These	-8886
acity	-8887
anion	-8888
arity	-8889
asure	-8890
ature	-8891
being	-8892
bhabe	-8893
conut	-8894
crast	-8895
ddess	-8896
edian	-8897
eless	-8898
elfie	-8899
ences	-8900
entle	-8901
field	-8902
folio	-8903
herap	-8904
hones	-8905
iable	-8906
icker	-8907
ility	-8908
iller	-8909
inder	-8910
iping	-8911
iques	-8912
ithai	-8913
jonto	-8914
khono	-8915
kichu	-8916
mself	-8917
ongue	-8918
ories	-8919
osaur	-8920
osing	-8921
ously	-8922
ranty	-8923
rible	-8924
share	-8925
shoot	-8926
stand	-8927
toric	-8928
unami	-8929
ustle	-8930
vings	-8931
watch	-8932
yojon	-8933
কেলের	-8934
ঙ্গলে	-8935
ডিয়া	-8936
প্লাই	-8937
য়ারা	-8938
যায়ী	-8939
লিস্ট	-8940
স্থিত	-8941
াকাছি	-8942
ারাথন	-8943
্কআউট	-8944
▁Both	-8945
▁Capt	-8946
▁Cont	-8947
▁Cool	-8948
▁Dive	-8949
▁Ebar	-8950
▁Gift	-8951
▁Good	-8952
▁Hard	-8953
▁Junk	-8954
▁Kids	-8955
▁Lect	-8956
▁Meme	-8957
▁Mism	-8958
▁Oily	-8959
▁Pujo	-8960
▁Rimi	-8961
▁Rina	-8962
▁Size	-8963
▁ages	-8964
▁amra	-8965
▁appl	-8966
▁asks	-8967
▁baba	-8968
▁bhai	-8969
▁bhor	-8970
▁boli	-8971
▁boll	-8972
▁bose	-8973
▁chao	-8974
▁clou	-8975
▁coma	-8976
▁cous	-8977
▁crit	-8978
▁cush	-8979
▁deep	-8980
▁diya	-8981
▁exhi	-8982
▁fade	-8983
▁fete	-8984
▁five	-8985
▁fule	-8986
▁haul	-8987
▁hawk	-8988
▁hobo	-8989
▁hoto	-8990
▁inno	-8991
▁jazz	-8992
▁khuj	-8993
▁lake	-8994
▁lots	-8995
▁luxu	-8996
▁mail	-8997
▁meat	-8998
▁modu	-8999
▁most	-9000
▁name	-9001
▁pace	-9002
▁peer	-9003
▁pipe	-9004
▁poem	-9005
▁pura	-9006
▁rema	-9007
▁rene	-9008
▁ripe	-9009
▁sack	-9010
▁saga	-9011
▁sara	-9012
▁sari	-9013
▁snee	-9014
▁sold	-9015
▁solo	-9016
▁soup	-9017
▁spee	-9018
▁stir	-9019
▁swag	-9020
▁swim	-9021
▁vabe	-9022
▁wind	-9023
▁zone	-9024
▁আগের	-9025
▁আমিও	-9026
▁আয়ো	-9027
▁উচ্ছ	-9028
▁উঠাও	-9029
▁এখনো	-9030
▁কর্ম	-9031
▁কোণা	-9032
▁ঘটনা	-9033
▁ঘুরো	-9034
▁ছন্দ	-9035
▁জ্বর	-9036
▁ডাকো	-9037
▁ডেটা	-9038
▁দলের	-9039
▁দামও	-9040
▁ধরার	-9041
▁পকেট	-9042
▁পাশে	-9043
▁পিঠা	-9044
▁প্লে	-9045
▁বইতে	-9046
▁বলছি	-9047
▁ভক্ষ	-9048
▁মাসে	-9049
▁মাস্	-9050
▁রাখি	-9051
▁লাইন	-9052
▁শব্দ	-9053
▁সহজে	-9054
▁সেটা	-9055
▁হইচই	-9056
▁হদিস	-9057
▁হাসল	-9058
active	-9059
agerly	-9060
angoli	-9061
antity	-9062
ceries	-9063
charge	-9064
colate	-9065
derweg	-9066
ertion	-9067
esaver	-9068
eteria	-9069
iately	-9070
ifully	-9071
ioning	-9072
iyechi	-9073
khechi	-9074
lagche	-9075
nament	-9076
nleash	-9077
offers	-9078
ruggle	-9079
spaper	-9080
thened	-9081
veller	-9082
venirs	-9083
ক্সেশন	-9084
ন্টিনে	-9085
ন্ত্রণ	-9086
বেক্ষণ	-9087
ষাকষির	-9088
স্ত্রি	-9089
▁Align	-9090
▁Birds	-9091
▁Blood	-9092
▁Cough	-9093
▁Crush	-9094
▁Delay	-9095
▁Email	-9096
▁Enjoy	-9097
▁Golpo	-9098
▁Kolik	-9099
▁Lower	-9100
▁Mithu	-9101
▁Mojar	-9102
▁Offer	-9103
▁Organ	-9104
▁Parar	-9105
▁Pitha	-9106
▁Price	-9107
▁Sharp	-9108
▁Still	-9109
▁Sugar	-9110
▁Tisha	-9111
▁Tried	-9112
▁WebMD	-9113
▁Whene	-9114
▁Would	-9115
▁alada	-9116
▁alien	-9117
▁align	-9118
▁alive	-9119
▁aschi	-9120
▁ashen	-9121
▁aunty	-9122
▁banai	-9123
▁banan	-9124
▁bandh	-9125
▁baray	-9126
▁bazar	-9127
▁begun	-9128
▁bhira	-9129
▁bosha	-9130
▁broke	-9131
▁built	-9132
▁buyer	-9133
▁cards	-9134
▁chaan	-9135
▁chaoa	-9136
▁clips	-9137
▁court	-9138
▁craze	-9139
▁crazy	-9140
▁daaka	-9141
▁decre	-9142
▁diner	-9143
▁entry	-9144
▁faced	-9145
▁fades	-9146
▁fight	-9147
▁flick	-9148
▁frown	-9149
▁gechi	-9150
▁ghuma	-9151
▁ghure	-9152
▁hangs	-9153
▁hoche	-9154
▁hopes	-9155
▁immed	-9156
▁inner	-9157
▁jayga	-9158
▁jeans	-9159
▁joker	-9160
▁jomao	-9161
▁katan	-9162
▁locks	-9163
▁major	-9164
▁melod	-9165
▁minor	-9166
▁mouth	-9167
▁niben	-9168
▁paink	-9169
▁pelam	-9170
▁persp	-9171
▁point	-9172
▁porlo	-9173
▁poses	-9174
▁prize	-9175
▁radio	-9176
▁riots	-9177
▁seats	-9178
▁sharp	-9179
▁shift	-9180
▁shoot	-9181
▁skyro	-9182
▁slice	-9183
▁spoon	-9184
▁spree	-9185
▁steak	-9186
▁swarm	-9187
▁sweep	-9188
▁swept	-9189
▁tader	-9190
▁thako	-9191
▁thief	-9192
▁those	-9193
▁throw	-9194
▁total	-9195
▁touch	-9196
▁tunes	-9197
▁tutor	-9198
▁upgra	-9199
▁wrote	-9200
▁yells	-9201
▁অন্তত	-9202
▁আইটেম	-9203
▁আতঙ্ক	-9204
▁আসবেন	-9205
▁উড়াও	-9206
▁উৎসবে	-9207
▁কমাতে	-9208
▁কমেডি	-9209
▁করাতে	-9210
▁কলতান	-9211
▁কাজকে	-9212
▁কিনলে	-9213
▁কিনুন	-9214
▁কুয়া	-9215
▁কৃতজ্	-9216
▁ক্রয়	-9217
▁খাওয়	-9218
▁গন্ধে	-9219
▁গিটার	-9220
▁গেলাম	-9221
▁চাঁদে	-9222
▁ছবিটি	-9223
▁ছোটবে	-9224
▁জমালে	-9225
▁জীবনে	-9226
▁টিমকে	-9227
▁দস্যু	-9228
▁দুর্ঘ	-9229
▁দৈনিক	-9230
▁ধরবেন	-9231
▁পড়েন	-9232
▁পরেছি	-9233
▁পূরণে	-9234
▁ফাস্ট	-9235
▁ফিরতে	-9236
▁ফিরেই	-9237
▁বললাম	-9238
▁বোনের	-9239
▁ব্লাড	-9240
▁ভূতের	-9241
▁রসালো	-9242
▁রুমের	-9243
▁শব্দে	-9244
▁শরীরে	-9245
▁হার্ট	-9246
coaster	-9247
esecake	-9248
hailing	-9249
inerary	-9250
journey	-9251
luggish	-9252
message	-9253
olished	-9254
ructure	-9255
shaking	-9256
sharing	-9257
tractor	-9258
whelmed	-9259
working	-9260
▁Bazare	-9261
▁Clinic	-9262
▁Dazzle	-9263
▁Dishes	-9264
▁Electr	-9265
▁Fixing	-9266
▁Garden	-9267
▁Gorome	-9268
▁Instru	-9269
▁Polish	-9270
▁Redial	-9271
▁Selfie	-9272
▁Shared	-9273
▁Sokale	-9274
▁Spring	-9275
▁Strugg	-9276
▁Sunset	-9277
▁Valent	-9278
▁Wander	-9279
▁Window	-9280
▁access	-9281
▁action	-9282
▁announ	-9283
▁auntie	-9284
▁buffer	-9285
▁bujhte	-9286
▁buying	-9287
▁cannot	-9288
▁circus	-9289
▁climax	-9290
▁cooper	-9291
▁cruise	-9292
▁danger	-9293
▁disrup	-9294
▁doomed	-9295
▁ekhane	-9296
▁especi	-9297
▁famous	-9298
▁formal	-9299
▁gaming	-9300
▁gentle	-9301
▁groove	-9302
▁ground	-9303
▁harder	-9304
▁hearts	-9305
▁hermit	-9306
▁hijack	-9307
▁horror	-9308
▁jacket	-9309
▁kinben	-9310
▁lagano	-9311
▁legend	-9312
▁locked	-9313
▁lonely	-9314
▁messes	-9315
▁mithai	-9316
▁modern	-9317
▁museum	-9318
▁parchi	-9319
▁police	-9320
▁polite	-9321
▁potato	-9322
▁prehis	-9323
▁raider	-9324
▁rained	-9325
▁rastar	-9326
▁rental	-9327
▁riddle	-9328
▁salary	-9329
▁scenes	-9330
▁schedu	-9331
▁shohor	-9332
▁single	-9333
▁smells	-9334
▁soothe	-9335
▁sorrow	-9336
▁sounds	-9337
▁speedy	-9338
▁spirit	-9339
▁stains	-9340
▁strike	-9341
▁supply	-9342
▁surfer	-9343
▁tables	-9344
▁tongue	-9345
▁trendy	-9346
▁unwell	-9347
▁wiring	-9348
▁yearly	-9349
▁অভ্যাস	-9350
▁আনন্দে	-9351
▁উৎসাহী	-9352
▁এড়ানো	-9353
▁এসেছেন	-9354
▁কমানোর	-9355
▁কোলাহল	-9356
▁ক্ষেতে	-9357
▁খাচ্ছি	-9358
▁খুঁজতে	-9359
▁গ্রামে	-9360
▁চমৎকার	-9361
▁চিকিৎস	-9362
▁চেহারা	-9363
▁ছবিটির	-9364
▁জানানো	-9365
▁জীবনকে	-9366
▁টিভিটি	-9367
▁ডেকেছি	-9368
▁তুলবেন	-9369
▁থাকবেন	-9370
▁থাকাটা	-9371
▁নিচ্ছি	-9372
▁নোটিফি	-9373
▁পড়লাম	-9374
▁পরেছেন	-9375
▁প্রায়	-9376
▁ফিরেছে	-9377
▁ফ্রিজে	-9378
▁বানালে	-9379
▁বিলম্ব	-9380
▁বিষণ্ণ	-9381
▁বৈশাখে	-9382
▁ব্যর্থ	-9383
▁মঙ্গলে	-9384
▁মজাদার	-9385
▁মুছেছে	-9386
▁মেট্রো	-9387
▁মোবাইল	-9388
▁রিল্যা	-9389
▁রেখেছে	-9390
▁সংশোধন	-9391
▁সাধারণ	-9392
▁হচ্ছেন	-9393
▁হিসেবে	-9394
Tomorrow	-9395
distance	-9396
herapist	-9397
standing	-9398
storming	-9399
অ্যাওয়ে	-9400
্যালয়ের	-9401
▁Brishti	-9402
▁Cleanup	-9403
▁Cycling	-9404
▁Formula	-9405
▁Lecture	-9406
▁Program	-9407
▁Reunion	-9408
▁Rocking	-9409
▁Snagged	-9410
▁Sparkle	-9411
▁advised	-9412
▁anymore	-9413
▁article	-9414
▁barista	-9415
▁charger	-9416
▁charges	-9417
▁chhilam	-9418
▁clarity	-9419
▁cleanup	-9420
▁coconut	-9421
▁covered	-9422
▁creates	-9423
▁damaged	-9424
▁decided	-9425
▁defense	-9426
▁deserve	-9427
▁devices	-9428
▁dhorben	-9429
▁drainer	-9430
▁eagerly	-9431
▁example	-9432
▁explode	-9433
▁factory	-9434
▁failure	-9435
▁getaway	-9436
▁giggles	-9437
▁goddess	-9438
▁grabber	-9439
▁hanging	-9440
▁himself	-9441
▁hopping	-9442
▁instead	-9443
▁kibhabe	-9444
▁koreche	-9445
▁lessons	-9446
▁lighter	-9447
▁mindset	-9448
▁monsoon	-9449
▁monster	-9450
▁monthly	-9451
▁nonstop	-9452
▁obostha	-9453
▁pandals	-9454
▁partner	-9455
▁physiot	-9456
▁podcast	-9457
▁portion	-9458
▁proceed	-9459
▁prochur	-9460
▁pullups	-9461
▁pushups	-9462
▁racecar	-9463
▁recipes	-9464
▁registr	-9465
▁relaxes	-9466
▁renewed	-9467
▁sapling	-9468
▁scanned	-9469
▁scooter	-9470
▁seconds	-9471
▁setting	-9472
▁shikhun	-9473
▁showing	-9474
▁singing	-9475
▁student	-9476
▁swiping	-9477
▁tarader	-9478
▁theater	-9479
▁threads	-9480
▁tsunami	-9481
▁vehicle	-9482
▁অনুশীলন	-9483
▁আইডিয়া	-9484
▁আয়োজনে	-9485
▁ইতিবাচক	-9486
▁উপস্থিত	-9487
▁উৎপাদিত	-9488
▁কিনেছেন	-9489
▁চারদিকে	-9490
▁জানালেন	-9491
▁টেবিলটি	-9492
▁দাগগুলো	-9493
▁দেওয়ার	-9494
▁ধৈর্যের	-9495
▁পরিবারে	-9496
▁পেমেন্ট	-9497
▁প্রতিটি	-9498
▁প্রেসার	-9499
▁ফোয়ারা	-9500
▁বার্গার	-9501
▁বিকেলের	-9502
▁মঙ্গলের	-9503
▁মানুষকে	-9504
▁মাস্টার	-9505
▁মিলিয়ে	-9506
▁মেসেজের	-9507
▁যাচ্ছেন	-9508
▁রিপ্লাই	-9509
▁সংরক্ষণ	-9510
▁সবচেয়ে	-9511
▁স্টাফকে	-9512
▁স্বস্তি	-9513
▁হওয়ায়	-9514
mperature	-9515
পরিচ্ছন্ন	-9516
▁Cashless	-9517
▁Computer	-9518
▁Mismatch	-9519
▁Schedule	-9520
▁Security	-9521
▁Shohorer	-9522
▁Shorirer	-9523
▁Snapping	-9524
▁Tomorrow	-9525
▁Whenever	-9526
▁bicycles	-9527
▁campaign	-9528
▁capacity	-9529
▁careless	-9530
▁cheerful	-9531
▁chilling	-9532
▁conveyed	-9533
▁counters	-9534
▁critical	-9535
▁dinosaur	-9536
▁discover	-9537
▁exertion	-9538
▁findings	-9539
▁footpath	-9540
▁ghosting	-9541
▁gossiped	-9542
▁grooming	-9543
▁happened	-9544
▁igniting	-9545
▁improves	-9546
▁innocent	-9547
▁khichuri	-9548
▁korechhe	-9549
▁midnight	-9550
▁moderate	-9551
▁motivate	-9552
▁movement	-9553
▁onderweg	-9554
▁opinions	-9555
▁porjonto	-9556
▁portrait	-9557
▁position	-9558
▁proyojon	-9559
▁quantity	-9560
▁reliable	-9561
▁reminder	-9562
▁replying	-9563
▁required	-9564
▁resolved	-9565
▁restless	-9566
▁seasonal	-9567
▁shikhchi	-9568
▁shipment	-9569
▁shohorer	-9570
▁smoothie	-9571
▁snapping	-9572
▁sneezing	-9573
▁standing	-9574
▁struggle	-9575
▁survivor	-9576
▁sweating	-9577
▁takeover	-9578
▁teachers	-9579
▁terrible	-9580
▁tomatoes	-9581
▁traveler	-9582
▁treasure	-9583
▁tutorial	-9584
▁warranty	-9585
▁withdraw	-9586
▁workflow	-9587
▁অনুযায়ী	-9588
▁এসেছিলেন	-9589
▁করিয়েছি	-9590
▁কাছাকাছি	-9591
▁গিয়েছেন	-9592
▁চারপাশের	-9593
▁জ্বালানো	-9594
▁তথ্যবহুল	-9595
▁তথ্যমূলক	-9596
▁নববর্ষের	-9597
▁পরিচর্যা	-9598
▁পুরোপুরি	-9599
▁বিছানায়	-9600
▁বিড়ালের	-9601
▁ম্যারাথন	-9602
▁সময়সূচি	-9603
▁সাইকেলটি	-9604
▁Kolikatar	-9605
▁Streaming	-9606
▁Traveling	-9607
▁Valentine	-9608
▁achieving	-9609
▁admirable	-9610
▁agreement	-9611
▁blackouts	-9612
▁buffering	-9613
▁cafeteria	-9614
▁chocolate	-9615
▁diagnosis	-9616
▁enchanted	-9617
▁encounter	-9618
▁explosion	-9619
▁functions	-9620
▁groceries	-9621
▁inspected	-9622
▁itinerary	-9623
▁lifesaver	-9624
▁locations	-9625
▁luxurious	-9626
▁mountains	-9627
▁newspaper	-9628
▁paintings	-9629
▁portfolio	-9630
▁preparing	-9631
▁reference	-9632
▁rewarding	-9633
▁schedules	-9634
▁screaming	-9635
▁selecting	-9636
▁servicing	-9637
▁shobkichu	-9638
▁souvenirs	-9639
▁sweetness	-9640
▁technique	-9641
▁tiredness	-9642
▁traveller	-9643
▁ক্ষুধার্ত	-9644
▁খাবারগুলো	-9645
▁জানিয়েছে	-9646
▁টেবিলগুলো	-9647
▁প্লেলিস্ট	-9648
▁রোমান্সের	-9649
▁হ্যান্ডেল	-9650
য়েন্টমেন্ট	-9651
▁Discussion	-9652
▁Instructor	-9653
▁Monitoring	-9654
▁Stretching	-9655
▁Struggling	-9656
▁cheesecake	-9657
▁cushioning	-9658
▁documented	-9659
▁especially	-9660
▁essentials	-9661
▁finalizing	-9662
▁invitation	-9663
▁korechilam	-9664
▁networking	-9665
▁painkiller	-9666
▁references	-9667
▁smartwatch	-9668
▁suggestion	-9669
▁techniques	-9670
▁tournament	-9671
▁ক্যান্টিনে	-9672
▁ক্লান্তিতে	-9673
▁নোটিফিকেশন	-9674
▁পরিবর্তনের	-9675
▁পর্যবেক্ষণ	-9676
▁Appointment	-9677
▁Ingredients	-9678
▁Maintaining	-9679
▁arrangement	-9680
▁beautifully	-9681
▁electronics	-9682
▁experienced	-9683
▁immediately	-9684
▁interactive	-9685
▁neighboring	-9686
▁overwhelmed	-9687
▁perspective	-9688
▁prehistoric	-9689
▁supervising	-9690
▁transaction	-9691
▁transferred	-9692
▁vaccination	-9693
▁টেকঅ্যাওয়ে	-9694
▁শান্তিপূর্ণ	-9695
▁সূর্যাস্তের	-9696
▁appreciation	-9697
▁dramatically	-9698
▁occasionally	-9699
▁registration	-9700
▁strengthened	-9701
▁রিল্যাক্সেশন	-9702
▁brainstorming	-9703
▁customization	-9704
▁international	-9705
▁participation	-9706
▁rollercoaster	-9707
▁রেস্টুরেন্টটি	-9708
▁সম্পর্কগুলোকে	-9709
▁specifications	-9710
▁physiotherapist	-9711
BG	-9712
Ch	-9713
Ho	-9714
IA	-9715
MS	-9716
Su	-9717
Wa	-9718
da	-9719
ji	-9720
uj	-9721
ংস	-9722
ইচ	-9723
কট	-9724
কপ	-9725
টো	-9726
ঠী	-9727
থচ	-9728
বট	-9729
বর	-9730
বৃ	-9731
রচ	-9732
রস	-9733
সি	-9734
ৈক	-9735
্গ	-9736
Bol	-9737
Can	-9738
Got	-9739
Kal	-9740
Log	-9741
Per	-9742
ady	-9743
aye	-9744
bed	-9745
bus	-9746
clu	-9747
cts	-9748
cul	-9749
hef	-9750
hoy	-9751
hut	-9752
itu	-9753
ldi	-9754
now	-9755
oof	-9756
owa	-9757
par	-9758
por	-9759
rek	-9760
ric	-9761
sen	-9762
tam	-9763
urt	-9764
zed	-9765
উইচ	-9766
উটি	-9767
কণ্	-9768
গির	-9769
ঘ্ন	-9770
চার	-9771
জিন	-9772
ড়া	-9773
ডের	-9774
ণাম	-9775
তেই	-9776
পতি	-9777
বিত	-9778
বিদ	-9779
বের	-9780
ভেল	-9781
লতে	-9782
লিং	-9783
লির	-9784
সাব	-9785
সীম	-9786
াবি	-9787
্চে	-9788
▁Fi	-9789
▁Ke	-9790
▁af	-9791
▁এত	-9792
▁চূ	-9793
▁ছো	-9794
▁তর	-9795
▁দই	-9796
▁দশ	-9797
▁প্	-9798
▁ফ্	-9799
my	-9800
ini	-9801
lap	-9802
উবে	-9803
ঝরে	-9804
টাও	-9805
ঠাস	-9806
দর্	-9807
▁Na	-9808
▁চৌ	-9809
▁যো	-9810
▁শূ	-9811
▁সক	-9812
Bolt	-9813
Hold	-9814
Pani	-9815
Sign	-9816
Wait	-9817
akhi	-9818
apse	-9819
atha	-9820
avig	-9821
bble	-9822
call	-9823
chha	-9824
cter	-9825
ctic	-9826
ctus	-9827
enus	-9828
food	-9829
gues	-9830
hali	-9831
hana	-9832
head	-9833
hire	-9834
ijoy	-9835
ileo	-9836
ille	-9837
jano	-9838
make	-9839
nger	-9840
olly	-9841
omat	-9842
omba	-9843
oral	-9844
ourn	-9845
pers	-9846
pted	-9847
pull	-9848
quer	-9849
rama	-9850
raph	-9851
rice	-9852
rime	-9853
rint	-9854
ript	-9855
roun	-9856
shti	-9857
some	-9858
tory	-9859
tual	-9860
umed	-9861
vive	-9862
wala	-9863
wise	-9864
ঁয়া	-9865
ংকের	-9866
উজিক	-9867
খ্যা	-9868
চণ্ড	-9869
টায়	-9870
ঠাসি	-9871
ড্রো	-9872
ত্তি	-9873
দ্রো	-9874
ন্ধন	-9875
ন্যা	-9876
পাঠী	-9877
পাতা	-9878
প্তি	-9879
ফল্য	-9880
বসের	-9881
বারক	-9882
বেদন	-9883
ভাতে	-9884
মেটো	-9885
মেসি	-9886
রায়	-9887
লাইট	-9888
শেষে	-9889
শ্চি	-9890
ষকের	-9891
সক্র	-9892
াঁধা	-9893
ারাত	-9894
ার্জ	-9895
াল্গ	-9896
িপশন	-9897
ূল্য	-9898
্বার	-9899
্মআপ	-9900
্যাগ	-9901
্রাই	-9902
▁Cox	-9903
▁Eng	-9904
▁Hat	-9905
▁Ind	-9906
▁Job	-9907
▁MIA	-9908
▁Ref	-9909
▁SMS	-9910
▁Shu	-9911
▁Sob	-9912
▁Sta	-9913
▁amp	-9914
▁apo	-9915
▁cer	-9916
▁cro	-9917
▁dic	-9918
▁fat	-9919
▁fly	-9920
▁fur	-9921
▁gal	-9922
▁hil	-9923
▁jac	-9924
▁jog	-9925
▁jor	-9926
▁kal	-9927
▁lay	-9928
▁mod	-9929
▁nay	-9930
▁pey	-9931
▁reb	-9932
▁sne	-9933
▁tul	-9934
▁yes	-9935
▁yog	-9936
▁অথচ	-9937
▁আছো	-9938
▁আবৃ	-9939
▁আসল	-9940
▁উঠো	-9941
▁উপর	-9942
▁একা	-9943
▁এনে	-9944
▁ওটস	-9945
▁করল	-9946
▁কাউ	-9947
▁খরচ	-9948
▁গর্	-9949
▁গলা	-9950
▁গাই	-9951
▁ঘর্	-9952
▁চলা	-9953
▁চাদ	-9954
▁জিত	-9955
▁ঝিম	-9956
▁টুই	-9957
▁দিল	-9958
▁দেব	-9959
▁পরো	-9960
▁পুন	-9961
▁পেজ	-9962
▁বার	-9963
▁বেশ	-9964
▁বোঝ	-9965
▁মাপ	-9966
▁লিক	-9967
▁সৈক	-9968
▁হজম	-9969
▁হর্	-9970
Chill	-9971
Phone	-9972
Point	-9973
Relax	-9974
adays	-9975
aling	-9976
alous	-9977
amona	-9978
anges	-9979
ashed	-9980
ategy	-9981
block	-9982
break	-9983
going	-9984
golla	-9985
hhone	-9986
iechi	-9987
igure	-9988
ijoya	-9989
iking	-9990
ilter	-9991
inked	-9992
inkle	-9993
laced	-9994
mpted	-9995
orted	-9996
ourse	-9997
rance	-9998
rivel	-9999
stant	-10000
takes	-10001
tered	-10002
ustho	-10003
ville	-10004
কণ্ঠা	-10005
ক্লিং	-10006
ড়ায়	-10007
ড্রোব	-10008
ণ্ডুল	-10009
দর্শন	-10010
ভিশনে	-10011
রিক্ত	-10012
লতেলে	-10013
সঙ্গত	-10014
্ববিদ	-10015
্যাতি	-10016
▁Aami	-10017
▁Ball	-10018
▁Bank	-10019
▁Chef	-10020
▁Docu	-10021
▁Drop	-10022
▁Ghor	-10023
▁Glit	-10024
▁Hail	-10025
▁Jump	-10026
▁Know	-10027
▁Main	-10028
▁Need	-10029
▁Once	-10030
▁Pash	-10031
▁Quiz	-10032
▁Sans	-10033
▁Seen	-10034
▁Soft	-10035
▁Such	-10036
▁Swap	-10037
▁Trek	-10038
▁Vibe	-10039
▁aren	-10040
▁argu	-10041
▁bash	-10042
▁bite	-10043
▁blue	-10044
▁bold	-10045
▁buys	-10046
▁chay	-10047
▁dibe	-10048
▁dump	-10049
▁edit	-10050
▁feet	-10051
▁felo	-10052
▁frag	-10053
▁fres	-10054
▁fume	-10055
▁gari	-10056
▁goof	-10057
▁grub	-10058
▁hurt	-10059
▁icon	-10060
▁imag	-10061
▁jano	-10062
▁jolt	-10063
▁joma	-10064
▁keta	-10065
▁khel	-10066
▁lead	-10067
▁melt	-10068
▁mint	-10069
▁nose	-10070
▁null	-10071
▁page	-10072
▁paye	-10073
▁pens	-10074
▁pere	-10075
▁peye	-10076
▁poet	-10077
▁pour	-10078
▁pros	-10079
▁sard	-10080
▁sche	-10081
▁sees	-10082
▁sesh	-10083
▁shon	-10084
▁shut	-10085
▁spar	-10086
▁tame	-10087
▁teas	-10088
▁tiny	-10089
▁tree	-10090
▁true	-10091
▁unbe	-10092
▁unle	-10093
▁uthe	-10094
▁অ্যা	-10095
▁ইউটি	-10096
▁কতটা	-10097
▁কফির	-10098
▁কারো	-10099
▁চড়ে	-10100
▁চড়ো	-10101
▁চলুন	-10102
▁চাবি	-10103
▁চোখে	-10104
▁টেলি	-10105
▁ঠাসা	-10106
▁তুলল	-10107
▁থাকি	-10108
▁থামে	-10109
▁দুইই	-10110
▁দূরে	-10111
▁নম্ব	-10112
▁নীতি	-10113
▁নেমে	-10114
▁পাকা	-10115
▁পাখি	-10116
▁পূর্	-10117
▁পেতে	-10118
▁ফার্	-10119
▁বলার	-10120
▁বোতল	-10121
▁ভদ্র	-10122
▁ভোজন	-10123
▁মনটা	-10124
▁মাংস	-10125
▁মুভি	-10126
▁রঙের	-10127
▁রুচি	-10128
▁রোবট	-10129
▁লাগল	-10130
▁লোভী	-10131
▁শিক্	-10132
▁শোনো	-10133
▁সংকট	-10134
▁সাজা	-10135
▁স্যা	-10136
▁হলাম	-10137
adcast	-10138
buster	-10139
cluded	-10140
erving	-10141
ftover	-10142
hechha	-10143
inated	-10144
itions	-10145
kritik	-10146
minute	-10147
ointed	-10148
phones	-10149
prised	-10150
puller	-10151
ulting	-10152
কারিতা	-10153
ন্ডউইচ	-10154
ন্তায়	-10155
সাহসিক	-10156
▁Akash	-10157
▁Album	-10158
▁Blast	-10159
▁Bring	-10160
▁Cable	-10161
▁Cholo	-10162
▁Could	-10163
▁Decis	-10164
▁Dekhe	-10165
▁Ghash	-10166
▁Going	-10167
▁Gorom	-10168
▁Heavy	-10169
▁Jamai	-10170
▁Khana	-10171
▁Kichu	-10172
▁Medic	-10173
▁Messy	-10174
▁Navig	-10175
▁Oscar	-10176
▁Power	-10177
▁Rakhi	-10178
▁Recor	-10179
▁Since	-10180
▁Split	-10181
▁Thali	-10182
▁Three	-10183
▁Viral	-10184
▁Vitam	-10185
▁autos	-10186
▁bhije	-10187
▁bolar	-10188
▁bucks	-10189
▁build	-10190
▁buses	-10191
▁cable	-10192
▁captu	-10193
▁chili	-10194
▁chips	-10195
▁chokh	-10196
▁claim	-10197
▁cooks	-10198
▁crave	-10199
▁crime	-10200
▁diben	-10201
▁dives	-10202
▁diyas	-10203
▁dusty	-10204
▁faint	-10205
▁fills	-10206
▁float	-10207
▁force	-10208
▁fries	-10209
▁ghash	-10210
▁ghore	-10211
▁graph	-10212
▁grave	-10213
▁guess	-10214
▁halka	-10215
▁hobey	-10216
▁horns	-10217
▁hosts	-10218
▁icche	-10219
▁jabar	-10220
▁jachi	-10221
▁jagga	-10222
▁joldi	-10223
▁jolts	-10224
▁khabo	-10225
▁khide	-10226
▁least	-10227
▁lines	-10228
▁lomba	-10229
▁maxed	-10230
▁novel	-10231
▁paths	-10232
▁plays	-10233
▁proof	-10234
▁queen	-10235
▁quips	-10236
▁rakhi	-10237
▁rakho	-10238
▁risen	-10239
▁rowed	-10240
▁salty	-10241
▁scarf	-10242
▁slide	-10243
▁snail	-10244
▁somoy	-10245
▁steal	-10246
▁talks	-10247
▁texts	-10248
▁thame	-10249
▁tweak	-10250
▁uchit	-10251
▁until	-10252
▁utsav	-10253
▁wanna	-10254
▁waste	-10255
▁অর্জন	-10256
▁আপলোড	-10257
▁আবারও	-10258
▁আলোতে	-10259
▁আসেনি	-10260
▁একদমই	-10261
▁এটিতে	-10262
▁এনেছি	-10263
▁ওজনের	-10264
▁কমেছে	-10265
▁করলেন	-10266
▁কাছের	-10267
▁কিনেন	-10268
▁কোথাও	-10269
▁গোয়ে	-10270
▁চাইছে	-10271
▁চিঠির	-10272
▁ছেড়ে	-10273
▁জন্যই	-10274
▁জামাই	-10275
▁ঝরঝরে	-10276
▁টমেটো	-10277
▁টিকেট	-10278
▁ডকুমে	-10279
▁ডিমের	-10280
▁তারিখ	-10281
▁ত্যাগ	-10282
▁দাদার	-10283
▁দামের	-10284
▁ধোয়া	-10285
▁নাচতে	-10286
▁পড়ছি	-10287
▁পড়লে	-10288
▁পরবেন	-10289
▁পাবেন	-10290
▁প্লাম	-10291
▁ফাল্গ	-10292
▁ফোনটি	-10293
▁বসন্ত	-10294
▁বসেছি	-10295
▁বিঘ্ন	-10296
▁বিচরণ	-10297
▁ভক্ষক	-10298
▁ভিন্ন	-10299
▁মুগ্ধ	-10300
▁মূল্য	-10301
▁মেনুর	-10302
▁রন্ধন	-10303
▁রানিং	-10304
▁লিডের	-10305
▁শুয়ে	-10306
▁শূন্য	-10307
▁শেষের	-10308
▁সময়ে	-10309
▁সুবাস	-10310
▁সুরটি	-10311
▁হিসাব	-10312
▁হেঁটে	-10313
▁হ্যাঁ	-10314
Perfect	-10315
actions	-10316
endable	-10317
hausted	-10318
inating	-10319
lements	-10320
ordered	-10321
parents	-10322
পাঠীদের	-10323
▁Course	-10324
▁Crowds	-10325
▁Guests	-10326
▁Haters	-10327
▁Hungry	-10328
▁Intern	-10329
▁Loudly	-10330
▁Mishti	-10331
▁Moment	-10332
▁Mother	-10333
▁Negoti	-10334
▁Opened	-10335
▁Packed	-10336
▁Recipe	-10337
▁Router	-10338
▁Shohor	-10339
▁Target	-10340
▁advise	-10341
▁alerts	-10342
▁amping	-10343
▁argues	-10344
▁beriye	-10345
▁bondho	-10346
▁breaks	-10347
▁bursts	-10348
▁button	-10349
▁cactus	-10350
▁caring	-10351
▁chhure	-10352
▁concer	-10353
▁danced	-10354
▁dekhle	-10355
▁dichhi	-10356
▁double	-10357
▁edited	-10358
▁except	-10359
▁eyeing	-10360
▁firing	-10361
▁floral	-10362
▁galore	-10363
▁gamble	-10364
▁gechen	-10365
▁ghonta	-10366
▁greasy	-10367
▁happen	-10368
▁haters	-10369
▁hectic	-10370
▁heroes	-10371
▁hustle	-10372
▁ichcha	-10373
▁jacche	-10374
▁komiye	-10375
▁korate	-10376
▁korech	-10377
▁kothao	-10378
▁loaded	-10379
▁looter	-10380
▁manush	-10381
▁moving	-10382
▁mutton	-10383
▁napper	-10384
▁notice	-10385
▁offers	-10386
▁pachhi	-10387
▁packet	-10388
▁prayer	-10389
▁rakhar	-10390
▁rating	-10391
▁repeat	-10392
▁sample	-10393
▁saving	-10394
▁script	-10395
▁sensor	-10396
▁shikhe	-10397
▁shokti	-10398
▁shunte	-10399
▁soaked	-10400
▁solved	-10401
▁sorted	-10402
▁source	-10403
▁speech	-10404
▁spills	-10405
▁sports	-10406
▁surely	-10407
▁teases	-10408
▁uthben	-10409
▁visits	-10410
▁walker	-10411
▁wrecks	-10412
▁yellow	-10413
▁yogurt	-10414
▁অনুভূত	-10415
▁অবস্থা	-10416
▁অ্যাপস	-10417
▁উদযাপন	-10418
▁এড়ালে	-10419
▁কমেন্ট	-10420
▁খ্যাতি	-10421
▁গর্বিত	-10422
▁গ্রুপে	-10423
▁ঘুরেছি	-10424
▁চিঠিতে	-10425
▁ছুটিতে	-10426
▁টুইটার	-10427
▁তরকারি	-10428
▁তৃপ্তি	-10429
▁দিবসের	-10430
▁দেখানো	-10431
▁নিয়েও	-10432
▁পাঠানো	-10433
▁পোস্টে	-10434
▁প্রণাম	-10435
▁প্রস্ত	-10436
▁ফ্লাইট	-10437
▁বইগুলো	-10438
▁বাঁচার	-10439
▁বাজানো	-10440
▁বাড়বে	-10441
▁বারবার	-10442
▁বিরক্ত	-10443
▁বিষয়ে	-10444
▁ভণ্ডুল	-10445
▁মিউজিক	-10446
▁মোবারক	-10447
▁যুক্তি	-10448
▁যোদ্ধা	-10449
▁রাখলাম	-10450
▁লুকানো	-10451
▁সবশেষে	-10452
▁সাফল্য	-10453
▁সাবধান	-10454
▁হর্নের	-10455
▁হাঁটুন	-10456
▁হাইজিন	-10457
▁হারানো	-10458
hokamona	-10459
ollywood	-10460
rounding	-10461
taurante	-10462
সক্রিপশন	-10463
▁Arrange	-10464
▁Balloon	-10465
▁Concept	-10466
▁Delayed	-10467
▁Fatigue	-10468
▁Healthy	-10469
▁Hitting	-10470
▁Hunting	-10471
▁Laughed	-10472
▁Locking	-10473
▁Luggage	-10474
▁Perform	-10475
▁Phuchka	-10476
▁Picking	-10477
▁Reached	-10478
▁Replace	-10479
▁Roaming	-10480
▁Shoshti	-10481
▁Sticker	-10482
▁Survive	-10483
▁Tonight	-10484
▁Trekked	-10485
▁Weather	-10486
▁annoyed	-10487
▁blocked	-10488
▁brewing	-10489
▁buckets	-10490
▁burgers	-10491
▁chaotic	-10492
▁choices	-10493
▁clearer	-10494
▁conquer	-10495
▁contrib	-10496
▁culture	-10497
▁experts	-10498
▁fastest	-10499
▁filters	-10500
▁freshen	-10501
▁further	-10502
▁gathers	-10503
▁general	-10504
▁ghumate	-10505
▁gifting	-10506
▁glitchy	-10507
▁inspect	-10508
▁invites	-10509
▁jealous	-10510
▁kokhono	-10511
▁landing	-10512
▁leaking	-10513
▁locking	-10514
▁looming	-10515
▁lottery	-10516
▁maestro	-10517
▁mangsho	-10518
▁nowhere	-10519
▁onekdin	-10520
▁opening	-10521
▁oranges	-10522
▁packing	-10523
▁parched	-10524
▁posting	-10525
▁printer	-10526
▁promise	-10527
▁quietly	-10528
▁respect	-10529
▁rockets	-10530
▁savings	-10531
▁shajano	-10532
▁shining	-10533
▁shortly	-10534
▁shrivel	-10535
▁shustho	-10536
▁soaking	-10537
▁squeeze	-10538
▁streets	-10539
▁sunrise	-10540
▁telling	-10541
▁timings	-10542
▁unknown	-10543
▁upgrade	-10544
▁usually	-10545
▁vibrant	-10546
▁victory	-10547
▁vitamin	-10548
▁weeping	-10549
▁willing	-10550
▁worries	-10551
▁yelling	-10552
▁younger	-10553
▁অপরিসীম	-10554
▁আপনাকেও	-10555
▁আবৃত্তি	-10556
▁ইউটিউবে	-10557
▁ইস্ত্রি	-10558
▁উজ্জ্বল	-10559
▁উৎকণ্ঠা	-10560
▁উৎসাহিত	-10561
▁করছিলাম	-10562
▁কাটানোর	-10563
▁ক্যাফের	-10564
▁চারপাশে	-10565
▁চ্যাটের	-10566
▁জানাবেন	-10567
▁জ্যামের	-10568
▁ঝিমিয়ে	-10569
▁ট্রাভেল	-10570
▁তারাদের	-10571
▁তেলতেলে	-10572
▁দৌড়াতে	-10573
▁দৌড়ানো	-10574
▁ধাক্কার	-10575
▁পরিবেশও	-10576
▁পাহাড়ে	-10577
▁পুনরায়	-10578
▁প্যাকেট	-10579
▁প্রচণ্ড	-10580
▁মিটিংটি	-10581
▁ম্যানেজ	-10582
▁যাওয়ার	-10583
▁যাচ্ছিল	-10584
▁লুকিয়ে	-10585
▁সহজভাবে	-10586
▁সামান্য	-10587
▁সারারাত	-10588
▁স্কুলের	-10589
▁স্ক্যান	-10590
▁হাঁটায়	-10591
▁হেঁটেছি	-10592
niversity	-10593
▁Concepts	-10594
▁Exchange	-10595
▁Hydrated	-10596
▁Medicine	-10597
▁Neighbor	-10598
▁Ordering	-10599
▁Pharmacy	-10600
▁Playlist	-10601
▁Replying	-10602
▁Snagging	-10603
▁Software	-10604
▁Speaking	-10605
▁Surprise	-10606
▁Takeaway	-10607
▁Wardrobe	-10608
▁accepted	-10609
▁advising	-10610
▁analyzed	-10611
▁assigned	-10612
▁balloons	-10613
▁becoming	-10614
▁berachhe	-10615
▁blasting	-10616
▁boarding	-10617
▁brighten	-10618
▁calmness	-10619
▁choleche	-10620
▁chugging	-10621
▁collabor	-10622
▁collapse	-10623
▁comedian	-10624
▁constant	-10625
▁consumed	-10626
▁controll	-10627
▁dichchen	-10628
▁forehead	-10629
▁function	-10630
▁handmade	-10631
▁hoarding	-10632
▁likhechi	-10633
▁magician	-10634
▁mistakes	-10635
▁munching	-10636
▁pichhone	-10637
▁sardines	-10638
▁shunechi	-10639
▁sluggish	-10640
▁sparking	-10641
▁strategy	-10642
▁teamwork	-10643
▁thikmoto	-10644
▁thriller	-10645
▁tourists	-10646
▁triggers	-10647
▁workouts	-10648
▁অতিরিক্ত	-10649
▁উচ্ছ্বাস	-10650
▁কুয়াশার	-10651
▁কৌতুকবাজ	-10652
▁কৌতুকময়	-10653
▁ঠাসাঠাসি	-10654
▁দরকষাকষি	-10655
▁পিজ্জাটি	-10656
▁ফার্মেসি	-10657
▁বিশ্ববিদ	-10658
▁ব্যবস্থা	-10659
▁ব্যাংকের	-10660
▁ভবিষ্যতে	-10661
▁সাইক্লিং	-10662
▁সার্ভিসও	-10663
▁Adventure	-10664
▁Answering	-10665
▁Bondhuder	-10666
▁Capturing	-10667
▁Concluded	-10668
▁Packaging	-10669
▁Passenger	-10670
▁Resetting	-10671
▁Reviewing	-10672
▁accidents	-10673
▁analyzing	-10674
▁announced	-10675
▁beriyechi	-10676
▁broadcast	-10677
▁character	-10678
▁companion	-10679
▁doctoring	-10680
▁exhausted	-10681
▁favorites	-10682
▁fragrance	-10683
▁guidebook	-10684
▁happening	-10685
▁hilarious	-10686
▁melodious	-10687
▁mesmerize	-10688
▁niyechhen	-10689
▁nosedives	-10690
▁packaging	-10691
▁receiving	-10692
▁riverside	-10693
▁roadblock	-10694
▁scrolling	-10695
▁surprised	-10696
▁tutorials	-10697
▁unleashes	-10698
▁voicemail	-10699
▁wandering	-10700
▁এড়িয়েছি	-10701
▁ওয়ার্মআপ	-10702
▁ওয়েটারের	-10703
▁গোয়েন্দা	-10704
▁চিকিৎসকের	-10705
▁টেলিভিশনে	-10706
▁ট্যাক্সির	-10707
▁দুর্ঘটনার	-10708
▁দেখাচ্ছিল	-10709
▁দেখাচ্ছেন	-10710
▁প্লাম্বার	-10711
▁বিরক্তিকর	-10712
▁ব্যর্থতার	-10713
▁ভ্রমণকারী	-10714
▁ল্যাপটপটি	-10715
▁সন্তুষ্টি	-10716
▁সহপাঠীদের	-10717
▁PowerPoint	-10718
▁Relaxation	-10719
▁Sanskritik	-10720
▁Technician	-10721
▁challenges	-10722
▁collecting	-10723
▁coordinate	-10724
▁distribute	-10725
▁encourages	-10726
▁exhaustion	-10727
▁explaining	-10728
▁forgetting	-10729
▁friendship	-10730
▁giyechilam	-10731
▁headphones	-10732
▁heartbreak	-10733
▁internship	-10734
▁playground	-10735
▁shubhechha	-10736
▁situations	-10737
▁skyrockets	-10738
▁ওয়ারড্রোব	-10739
▁ওয়ার্কআউট	-10740
▁খেয়েছিলাম	-10741
▁বাড়িয়েছে	-10742
▁স্মৃতিগুলো	-10743
▁স্যান্ডউইচ	-10744
▁Destination	-10745
▁Electrician	-10746
▁Maintenance	-10747
▁Restaurante	-10748
▁Sightseeing	-10749
▁achievement	-10750
▁battlefield	-10751
▁blockbuster	-10752
▁commendable	-10753
▁coordinated	-10754
▁diyechhilen	-10755
▁downloading	-10756
▁efficiently	-10757
▁experiences	-10758
▁imagination	-10759
▁khelechilam	-10760
▁mindblowing	-10761
▁overheating	-10762
▁perechhilen	-10763
▁restaurants	-10764
▁supplements	-10765
▁surrounding	-10766
▁temperature	-10767
▁troublesome	-10768
▁কম্পিউটারটি	-10769
▁কার্যকারিতা	-10770
▁ডকুমেন্টেশন	-10771
▁যুক্তিসঙ্গত	-10772
▁Neighborhood	-10773
▁disappointed	-10774
▁grandparents	-10775
▁kheyechhilen	-10776
▁performances	-10777
▁preparations	-10778
▁shubhokamona	-10779
▁transactions	-10780
▁প্রেসক্রিপশন	-10781
▁encouragement	-10782
▁functionality	-10783
▁ডকুমেন্টারিটি	-10784
▁disappointment	-10785
▁recommendation	-10786
SAP	-10787
dao	-10788
fts	-10789
ium	-10790
kka	-10791
lug	-10792
ঁধা	-10793
কপি	-10794
ডইন	-10795
ডমি	-10796
মরণ	-10797
রকম	-10798
িংস	-10799
Fix	-10800
oph	-10801
কআপ	-10802
শবা	-10803
িদা	-10804
ৃথি	-10805
্ডে	-10806
্মত	-10807
্লি	-10808
▁Vo	-10809
▁ওঠ	-10810
▁রূ	-10811
Cand	-10812
Free	-10813
Gift	-10814
Move	-10815
Pipe	-10816
Rima	-10817
Show	-10818
Time	-10819
achi	-10820
agna	-10821
ajar	-10822
alax	-10823
bliv	-10824
cano	-10825
come	-10826
cony	-10827
daoa	-10828
easy	-10829
fari	-10830
full	-10831
grid	-10832
haba	-10833
ilty	-10834
kkha	-10835
mium	-10836
nbox	-10837
oids	-10838
seek	-10839
shbe	-10840
sole	-10841
step	-10842
wali	-10843
yser	-10844
ঁটার	-10845
কাশে	-10846
ক্রম	-10847
ক্সট	-10848
দিনে	-10849
ন্সট	-10850
পাটি	-10851
বসাই	-10852
মাকে	-10853
রগির	-10854
রসিক	-10855
লাফল	-10856
শ্যই	-10857
সারস	-10858
স্তক	-10859
স্থি	-10860
স্বর	-10861
হিদা	-10862
ুক্ত	-10863
ুড়ি	-10864
্চয়	-10865
্জটি	-10866
▁Bim	-10867
▁Sea	-10868
▁Two	-10869
▁bli	-10870
▁blu	-10871
▁dyn	-10872
▁hyg	-10873
▁keu	-10874
▁koi	-10875
▁sca	-10876
▁swi	-10877
▁unc	-10878
▁urb	-10879
▁voc	-10880
▁zen	-10881
▁অপর	-10882
▁ওঠা	-10883
▁জাগ	-10884
▁তুফ	-10885
▁ধরণ	-10886
▁নদী	-10887
▁পুক	-10888
▁বছর	-10889
▁ভাষ	-10890
▁ভিজ	-10891
▁মুশ	-10892
▁মোড	-10893
▁রকম	-10894
▁লোড	-10895
▁শীত	-10896
▁সিএ	-10897
▁সিট	-10898
▁হইহ	-10899
spe	-10900
রোধ	-10901
▁Kh	-10902
adem	-10903
pass	-10904
rass	-10905
ults	-10906
বিস্	-10907
লোড়	-10908
ুনের	-10909
▁Chr	-10910
▁dim	-10911
▁ope	-10912
▁raw	-10913
▁নিদ	-10914
▁ফাঁ	-10915
▁যেত	-10916
▁সুই	-10917
▁সুপ	-10918
▁হতো	-10919
▁হিল	-10920
▁হোক	-10921
Aunty	-10922
Drama	-10923
Dream	-10924
Sugar	-10925
alaxy	-10926
algia	-10927
avoid	-10928
bbing	-10929
becue	-10930
blish	-10931
cadem	-10932
chkar	-10933
cious	-10934
clock	-10935
culty	-10936
dhula	-10937
elves	-10938
enery	-10939
erify	-10940
esert	-10941
genic	-10942
ggler	-10943
gized	-10944
grams	-10945
hakka	-10946
hanay	-10947
hurto	-10948
hutto	-10949
iches	-10950
ified	-10951
imate	-10952
inary	-10953
inese	-10954
issue	-10955
itian	-10956
llies	-10957
mbing	-10958
milar	-10959
mptly	-10960
notch	-10961
olley	-10962
omito	-10963
orker	-10964
osoph	-10965
otize	-10966
owman	-10967
racle	-10968
rokom	-10969
skill	-10970
space	-10971
speed	-10972
swers	-10973
ulary	-10974
upied	-10975
urcha	-10976
vious	-10977
worth	-10978
xious	-10979
গ্রাহ	-10980
জাপতি	-10981
ত্রার	-10982
থেষ্ট	-10983
দান্ত	-10984
দ্ধার	-10985
ন্ধান	-10986
ফাস্ট	-10987
ফুল্ল	-10988
ভাতের	-10989
ময়লা	-10990
মাক্ত	-10991
লেন্ট	-10992
শবাজি	-10993
শ্রয়	-10994
ষ্টিভ	-10995
সার্চ	-10996
স্তেজ	-10997
াক্কি	-10998
ার্ডে	-10999
gah	-11000
ims	-11001
nap	-11002
ত্ব	-11003
ষণা	-11004
body	-11005
cist	-11006
duce	-11007
gapp	-11008
ists	-11009
rans	-11010
shub	-11011
ties	-11012
ত্রে	-11013
মেলা	-11014
▁Dod	-11015
▁সুশ	-11016
duate	-11017
enior	-11018
gappa	-11019
idgah	-11020
laims	-11021
rowed	-11022
িকারি	-11023
ীবনের	-11024
ৃষকের	-11025
্রচার	-11026
্সারস	-11027
▁ASAP	-11028
▁Apps	-11029
▁Arti	-11030
▁Bhai	-11031
▁Bulk	-11032
▁Eyes	-11033
▁Flor	-11034
▁Gobb	-11035
▁Jhal	-11036
▁Khab	-11037
▁Khub	-11038
▁Lake	-11039
▁Most	-11040
▁Open	-11041
▁Pore	-11042
▁Raat	-11043
▁Ritu	-11044
▁Scor	-11045
▁Star	-11046
▁Step	-11047
▁Warm	-11048
▁Wish	-11049
▁Worn	-11050
▁afra	-11051
▁anew	-11052
▁army	-11053
▁baby	-11054
▁baki	-11055
▁bani	-11056
▁bath	-11057
▁bere	-11058
▁bigg	-11059
▁bird	-11060
▁bunk	-11061
▁cope	-11062
▁cows	-11063
▁crew	-11064
▁drag	-11065
▁dude	-11066
▁ears	-11067
▁eats	-11068
▁farm	-11069
▁flex	-11070
▁gese	-11071
▁grid	-11072
▁grum	-11073
▁gulp	-11074
▁hawa	-11075
▁inju	-11076
▁isol	-11077
▁jaga	-11078
▁jeno	-11079
▁jump	-11080
▁kini	-11081
▁lady	-11082
▁luck	-11083
▁momo	-11084
▁nibo	-11085
▁nich	-11086
▁nile	-11087
▁nosh	-11088
▁ours	-11089
▁perm	-11090
▁pete	-11091
▁phil	-11092
▁piye	-11093
▁pock	-11094
▁pops	-11095
▁priv	-11096
▁rips	-11097
▁roso	-11098
▁sapl	-11099
▁ঝম	-11100
Hard	-11101
ived	-11102
llig	-11103
sure	-11104
walk	-11105
খানা	-11106
ভায়	-11107
ুদ্ধ	-11108
েলফি	-11109
▁Sto	-11110
▁ass	-11111
▁jov	-11112
▁pai	-11113
▁গরু	-11114
▁ঝমঝ	-11115
Gotta	-11116
dator	-11117
effic	-11118
etite	-11119
ienic	-11120
ivate	-11121
kachi	-11122
level	-11123
lived	-11124
mares	-11125
oward	-11126
reath	-11127
reats	-11128
গুলোর	-11129
ন্সটল	-11130
▁Brow	-11131
▁Dash	-11132
▁Find	-11133
▁babo	-11134
▁dash	-11135
▁loss	-11136
▁pash	-11137
▁poll	-11138
▁sabo	-11139
▁sapn	-11140
▁scam	-11141
▁shif	-11142
▁shuk	-11143
▁sips	-11144
▁sore	-11145
▁sung	-11146
▁tyre	-11147
▁vamp	-11148
▁vase	-11149
▁verb	-11150
▁vibr	-11151
▁vlog	-11152
▁whis	-11153
▁wipe	-11154
▁yard	-11155
▁অন্ধ	-11156
▁অফার	-11157
▁আনবো	-11158
▁আরোহ	-11159
▁আসছি	-11160
▁আসুন	-11161
▁উঠুন	-11162
▁কলটি	-11163
▁কলের	-11164
▁কাঁপ	-11165
▁কালী	-11166
▁খিদে	-11167
▁খেলব	-11168
▁গাজর	-11169
▁ঘুমো	-11170
▁চাদর	-11171
▁চিকে	-11172
▁চৌকস	-11173
▁ছোটে	-11174
▁জয়ী	-11175
▁জিতে	-11176
▁ঝড়ে	-11177
▁ঝমঝম	-11178
▁ঝুলে	-11179
▁ডাকা	-11180
▁তুলো	-11181
▁দক্ষ	-11182
▁দুটো	-11183
▁দেবো	-11184
▁ধুলা	-11185
▁নড়ে	-11186
▁নাচে	-11187
▁নামল	-11188
▁পড়ল	-11189
▁পালা	-11190
▁পূরণ	-11191
▁পৃথি	-11192
▁ফলের	-11193
▁বছরে	-11194
▁বসতে	-11195
▁বাকি	-11196
▁বারা	-11197
▁বিলম	-11198
▁ভাসে	-11199
দর	-11200
▁থ	-11201
iti	-11202
unm	-11203
cked	-11204
cket	-11205
ench	-11206
eral	-11207
erun	-11208
hoor	-11209
urbo	-11210
ণ্ডব	-11211
ত্যা	-11212
▁Bal	-11213
▁Sil	-11214
▁Yet	-11215
▁bhe	-11216
▁smu	-11217
▁sti	-11218
▁উঠি	-11219
▁বসব	-11220
▁সন্	-11221
▁সরা	-11222
▁সের	-11223
ender	-11224
eruns	-11225
hoora	-11226
imize	-11227
ringe	-11228
িয়াব	-11229
▁cute	-11230
▁door	-11231
▁shir	-11232
▁ster	-11233
▁কমলা	-11234
▁কমান	-11235
▁কাশি	-11236
▁খায়	-11237
▁থাকব	-11238
▁মানো	-11239
▁মিলন	-11240
▁মুখে	-11241
▁মোছা	-11242
▁মোডে	-11243
▁রংটি	-11244
▁রাখী	-11245
▁রোদে	-11246
▁লিখি	-11247
▁শিখে	-11248
▁সংস্	-11249
▁সভার	-11250
▁সরাস	-11251
▁হইনি	-11252
Desert	-11253
Sample	-11254
aching	-11255
ackles	-11256
aterer	-11257
atient	-11258
atives	-11259
bility	-11260
blower	-11261
castle	-11262
ddenly	-11263
dience	-11264
eously	-11265
eprint	-11266
ficate	-11267
iances	-11268
icense	-11269
iechen	-11270
igious	-11271
igured	-11272
illing	-11273
imbing	-11274
inkedI	-11275
iracle	-11276
irtual	-11277
istent	-11278
lectri	-11279
luence	-11280
metics	-11281
monium	-11282
mpties	-11283
negoti	-11284
nknown	-11285
office	-11286
onally	-11287
onnect	-11288
oodles	-11289
oritam	-11290
orstep	-11291
ourmet	-11292
ournal	-11293
randed	-11294
riotic	-11295
roduce	-11296
rotein	-11297
shubid	-11298
soaked	-11299
Be	-11300
চন	-11301
You	-11302
lay	-11303
িপে	-11304
োচন	-11305
▁DJ	-11306
▁শয	-11307
Slay	-11308
adio	-11309
oton	-11310
umph	-11311
গোতে	-11312
শিয়	-11313
▁Kot	-11314
▁Wor	-11315
▁dho	-11316
▁fas	-11317
▁isn	-11318
▁kon	-11319
▁lan	-11320
▁las	-11321
▁mel	-11322
▁দাঁ	-11323
▁মনও	-11324
▁লেক	-11325
hubho	-11326
otony	-11327
riday	-11328
sible	-11329
পিয়ে	-11330
▁Does	-11331
▁atke	-11332
▁cabb	-11333
▁cars	-11334
▁fasc	-11335
▁mult	-11336
▁আন্ত	-11337
▁মসজি	-11338
▁সেলে	-11339
Candle	-11340
tellig	-11341
ttered	-11342
urging	-11343
venger	-11344
worthy	-11345
ঁধাকপি	-11346
কফাস্ট	-11347
গ্রাহক	-11348
ঙ্কডইন	-11349
চিত্রে	-11350
ত্যাশা	-11351
ধাক্কি	-11352
নিশিয়	-11353
ন্ডিংস	-11354
ন্দায়	-11355
ন্বেষণ	-11356
ন্মোচন	-11357
ন্যাসী	-11358
ফোঁটার	-11359
মিয়াব	-11360
স্ট্রি	-11361
স্থিতি	-11362
ৃষকেরা	-11363
▁Added	-11364
▁Asked	-11365
▁Bimal	-11366
▁Bread	-11367
▁Claim	-11368
▁Close	-11369
▁Creat	-11370
▁Enter	-11371
▁Fiery	-11372
▁Focus	-11373
▁Gorme	-11374
▁Grand	-11375
▁Green	-11376
▁Guest	-11377
▁Hurry	-11378
▁Indep	-11379
▁Kemon	-11380
▁Maach	-11381
▁Plans	-11382
▁Plate	-11383
▁Radio	-11384
▁Rainy	-11385
▁Rasta	-11386
▁Reach	-11387
▁Shari	-11388
▁Shumi	-11389
▁Stall	-11390
▁Stuff	-11391
▁Swear	-11392
▁Throw	-11393
▁Trans	-11394
▁Tying	-11395
▁Voice	-11396
▁Wanna	-11397
▁admit	-11398
▁advan	-11399
Bha	-11400
Fit	-11401
cet	-11402
দয়	-11403
নজি	-11404
মুখ	-11405
্জি	-11406
Fitr	-11407
anor	-11408
ayer	-11409
eels	-11410
tion	-11411
ঁতার	-11412
ৃদ্ধ	-11413
▁Aro	-11414
▁fre	-11415
▁gay	-11416
▁non	-11417
▁pac	-11418
▁tow	-11419
▁আশে	-11420
▁ঘটে	-11421
aucet	-11422
eding	-11423
irate	-11424
npack	-11425
ক্ষেপ	-11426
▁Folk	-11427
▁Pers	-11428
▁Toss	-11429
▁aste	-11430
▁town	-11431
▁wing	-11432
▁এখনই	-11433
▁দেখি	-11434
▁ভাজি	-11435
istory	-11436
motion	-11437
ourism	-11438
peless	-11439
ড়ান্ত	-11440
ন্ট্রা	-11441
▁Mount	-11442
▁Probe	-11443
▁Surjo	-11444
▁Wiped	-11445
▁aches	-11446
▁akash	-11447
▁asche	-11448
▁backb	-11449
▁backp	-11450
▁basic	-11451
▁beans	-11452
▁beats	-11453
▁began	-11454
▁belly	-11455
▁bills	-11456
▁bolle	-11457
▁bombs	-11458
▁boshi	-11459
▁bunny	-11460
▁burns	-11461
▁camel	-11462
▁capab	-11463
▁carro	-11464
▁certi	-11465
▁chann	-11466
▁chart	-11467
▁chess	-11468
▁chuck	-11469
▁cloth	-11470
▁cough	-11471
▁coura	-11472
▁debit	-11473
▁depos	-11474
▁dhaba	-11475
▁downs	-11476
▁dozes	-11477
▁draft	-11478
▁dying	-11479
▁dynam	-11480
▁eases	-11481
▁eight	-11482
▁embar	-11483
▁exact	-11484
▁facts	-11485
▁gasps	-11486
▁ghumo	-11487
▁ghura	-11488
▁ghuri	-11489
▁gloom	-11490
▁gradu	-11491
▁grind	-11492
▁grins	-11493
▁gulps	-11494
▁hired	-11495
▁hishe	-11496
▁hotei	-11497
▁humor	-11498
▁hyped	-11499
AM	-11500
ei	-11501
pu	-11502
ধর	-11503
ষো	-11504
ুম	-11505
ati	-11506
hem	-11507
let	-11508
mas	-11509
ron	-11510
zer	-11511
চরা	-11512
বান	-11513
▁VI	-11514
▁km	-11515
chef	-11516
ends	-11517
iten	-11518
কারে	-11519
জাতে	-11520
্রাণ	-11521
▁Fan	-11522
▁RAM	-11523
▁VIP	-11524
▁glo	-11525
▁lal	-11526
▁occ	-11527
▁কষো	-11528
lette	-11529
ধরনের	-11530
পত্তি	-11531
▁Iron	-11532
▁Ital	-11533
▁beta	-11534
▁chap	-11535
▁doub	-11536
▁glob	-11537
▁hire	-11538
▁meds	-11539
▁ment	-11540
▁smoo	-11541
▁tent	-11542
▁toll	-11543
▁tumi	-11544
▁চরমে	-11545
▁সুরে	-11546
bition	-11547
istmas	-11548
puffer	-11549
মরণীয়	-11550
াচ্ছেন	-11551
েউয়ের	-11552
▁arati	-11553
▁bheje	-11554
▁chair	-11555
▁doubt	-11556
▁furao	-11557
▁ident	-11558
▁initi	-11559
▁jamai	-11560
▁kacha	-11561
▁katlo	-11562
▁kinun	-11563
▁koreo	-11564
▁korma	-11565
▁lagle	-11566
▁lanes	-11567
▁lives	-11568
▁majhe	-11569
▁mango	-11570
▁maxes	-11571
▁mecha	-11572
▁menus	-11573
▁messy	-11574
▁milbo	-11575
▁minty	-11576
▁mixed	-11577
▁model	-11578
▁momos	-11579
▁moton	-11580
▁noble	-11581
▁obliv	-11582
▁pahar	-11583
▁pings	-11584
▁porda	-11585
▁pride	-11586
▁print	-11587
▁promo	-11588
▁prona	-11589
▁quizz	-11590
▁rainb	-11591
▁rainy	-11592
▁react	-11593
▁regre	-11594
▁rescu	-11595
▁roilo	-11596
▁rokom	-11597
▁sauna	-11598
▁saver	-11599
Do	-11600
EO	-11601
Pot	-11602
dis	-11603
hle	-11604
lyp	-11605
ulu	-11606
ডভে	-11607
▁AI	-11608
▁au	-11609
▁bK	-11610
ashe	-11611
bles	-11612
boat	-11613
roke	-11614
stho	-11615
র্মী	-11616
ারিশ	-11617
ালাম	-11618
▁CEO	-11619
▁bic	-11620
▁কয়	-11621
calyp	-11622
chilo	-11623
inish	-11624
osque	-11625
ধর্মী	-11626
▁News	-11627
▁Seat	-11628
▁Slap	-11629
▁Tulu	-11630
▁craw	-11631
▁dise	-11632
▁fell	-11633
▁hail	-11634
▁rule	-11635
▁tool	-11636
▁আপেল	-11637
▁শক্ত	-11638
Finish	-11639
atform	-11640
stroke	-11641
uously	-11642
পাতালে	-11643
▁Dodge	-11644
▁Other	-11645
▁bKash	-11646
▁cheap	-11647
▁moner	-11648
▁pashe	-11649
▁scoop	-11650
▁scout	-11651
▁sever	-11652
▁shade	-11653
▁shape	-11654
▁shock	-11655
▁shuye	-11656
▁sings	-11657
▁slash	-11658
▁sneak	-11659
▁songe	-11660
▁splas	-11661
▁split	-11662
▁sprin	-11663
▁squee	-11664
▁stalk	-11665
▁stiff	-11666
▁stunt	-11667
▁towel	-11668
▁traps	-11669
▁trips	-11670
▁truck	-11671
▁turbo	-11672
▁uncom	-11673
▁unsta	-11674
▁uposh	-11675
▁urban	-11676
▁uthte	-11677
▁utsab	-11678
▁vlogs	-11679
▁vocab	-11680
▁wrist	-11681
▁years	-11682
▁zooms	-11683
▁অপরকে	-11684
▁অবশেষ	-11685
▁অবিস্	-11686
▁আরোহণ	-11687
▁উপকার	-11688
▁এগোতে	-11689
▁এড়াও	-11690
▁করানো	-11691
▁কাঁদে	-11692
▁ক্রীত	-11693
▁খুচরা	-11694
▁খেলছে	-11695
▁গাইতে	-11696
▁ঘুমান	-11697
▁ঘুরছে	-11698
▁ঘুরুন	-11699
Ad	-11700
Ek	-11701
bu	-11702
gs	-11703
গা	-11704
ঠি	-11705
শে	-11706
ষক	-11707
ষম	-11708
Now	-11709
ana	-11710
ibo	-11711
tag	-11712
war	-11713
টিভ	-11714
▁BP	-11715
▁ঝক	-11716
hben	-11717
htag	-11718
iple	-11719
poro	-11720
tifa	-11721
ungs	-11722
▁Who	-11723
▁bak	-11724
▁চলি	-11725
▁ঝকঝ	-11726
▁দিব	-11727
Fixed	-11728
bhaat	-11729
match	-11730
rying	-11731
tling	-11732
urger	-11733
্লোড়	-11734
▁Pant	-11735
▁Rana	-11736
▁Resp	-11737
▁Rima	-11738
▁Wrap	-11739
▁brut	-11740
▁lect	-11741
▁pond	-11742
▁slay	-11743
▁কাটে	-11744
▁ঝকঝক	-11745
▁ডাটা	-11746
▁নানি	-11747
▁পোষা	-11748
▁সুষম	-11749
▁Burst	-11750
▁Stock	-11751
▁Tasks	-11752
▁ashle	-11753
▁blimp	-11754
▁lungs	-11755
▁mails	-11756
▁naile	-11757
▁spect	-11758
▁অনন্য	-11759
▁ঘোষণা	-11760
▁চড়ুন	-11761
▁চাপের	-11762
▁চার্জ	-11763
▁চালান	-11764
▁চিকেন	-11765
▁চিবান	-11766
▁চেয়ে	-11767
▁জ্বাল	-11768
▁ডাকাত	-11769
▁ড্রাই	-11770
▁তর্কে	-11771
▁তুফান	-11772
▁থাকবো	-11773
▁থাকার	-11774
▁থাকুন	-11775
▁দিলেন	-11776
▁দুটোই	-11777
▁ধাঁধা	-11778
▁নম্বর	-11779
▁নাহলে	-11780
▁নেয়া	-11781
▁পারবে	-11782
▁পূর্ণ	-11783
▁প্রশ্	-11784
▁প্রাণ	-11785
▁ফলাফল	-11786
▁ফাটাও	-11787
▁ফেরার	-11788
▁বিলম্	-11789
▁বুকিং	-11790
▁বেড়ে	-11791
▁ব্রেড	-11792
▁ভাজার	-11793
▁মুশকি	-11794
▁মেলাও	-11795
▁রাখলে	-11796
▁রাখুন	-11797
▁রাখেন	-11798
▁রেডিও	-11799
.”	-11800
Sc	-11801
fy	-11802
হু	-11803
lhe	-11804
▁aj	-11805
▁নৌ	-11806
▁হন	-11807
Keep	-11808
city	-11809
ians	-11810
lhet	-11811
meal	-11812
otes	-11813
urgi	-11814
হুড়	-11815
ালেন	-11816
▁dut	-11817
▁foo	-11818
▁ome	-11819
▁six	-11820
▁আবি	-11821
▁নেম	-11822
▁স্প	-11823
Scoot	-11824
adhan	-11825
igges	-11826
ylhet	-11827
ঙ্গাম	-11828
হুড়ো	-11829
ৌদ্রো	-11830
▁bhoy	-11831
▁bhul	-11832
▁duty	-11833
▁nost	-11834
▁চলতে	-11835
iggesh	-11836
owards	-11837
ঙ্গামা	-11838
য়েছেন	-11839
▁Angry	-11840
▁Shoot	-11841
▁blogs	-11842
▁obsta	-11843
▁peaks	-11844
▁phire	-11845
▁rosho	-11846
▁sapno	-11847
▁scrap	-11848
▁sense	-11849
▁sorry	-11850
▁sunny	-11851
▁মাপের	-11852
▁লিস্ট	-11853
▁লেকের	-11854
▁শার্ট	-11855
▁শেখাই	-11856
▁সবুজে	-11857
▁সভায়	-11858
▁সময়ও	-11859
▁সাজাও	-11860
▁সেলফি	-11861
▁সৈকতে	-11862
▁সোফার	-11863
▁স্টলে	-11864
▁হতাশা	-11865
▁হোলির	-11866
aration	-11867
atement	-11868
booking	-11869
cademic	-11870
calypse	-11871
eftover	-11872
endence	-11873
fective	-11874
hipping	-11875
hopping	-11876
idnight	-11877
ificant	-11878
ilities	-11879
imultan	-11880
inkedIn	-11881
ishment	-11882
lecture	-11883
llywood	-11884
ominate	-11885
onsider	-11886
pnotize	-11887
protein	-11888
rangers	-11889
rassing	-11890
reunion	-11891
smetics	-11892
tensity	-11893
tourism	-11894
unities	-11895
urchase	-11896
িয়েটিভ	-11897
্লিকেশন	-11898
্সারসাই	-11899
তী	-11900
fly	-11901
mix	-11902
tee	-11903
vas	-11904
রেক	-11905
লাদ	-11906
েছো	-11907
▁IT	-11908
▁শি	-11909
▁হব	-11910
Best	-11911
Food	-11912
asad	-11913
lymp	-11914
what	-11915
য়াই	-11916
্চার	-11917
▁Any	-11918
▁Pho	-11919
▁Rom	-11920
▁Sit	-11921
▁col	-11922
▁eco	-11923
▁int	-11924
▁mad	-11925
▁ped	-11926
▁toh	-11927
▁অতী	-11928
▁আজই	-11929
▁সুখ	-11930
ittee	-11931
▁Rast	-11932
▁dibo	-11933
▁oita	-11934
▁quip	-11935
▁আরেক	-11936
▁কাটো	-11937
▁চাইব	-11938
herish	-11939
lympic	-11940
terfly	-11941
▁horse	-11942
▁stood	-11943
▁বানাও	-11944
▁সালাদ	-11945
▁Aajker	-11946
▁Adding	-11947
▁Adjust	-11948
▁Advice	-11949
▁Before	-11950
▁Bijoya	-11951
▁Browse	-11952
▁Burger	-11953
▁Casual	-11954
▁Client	-11955
▁Coupon	-11956
▁Drying	-11957
▁Ensure	-11958
▁Erokom	-11959
▁Filter	-11960
▁Floral	-11961
▁Flower	-11962
▁Friday	-11963
▁Gobble	-11964
▁Groove	-11965
▁Joined	-11966
▁Kothay	-11967
▁Launch	-11968
▁Liking	-11969
▁Locate	-11970
▁Mosque	-11971
▁Museum	-11972
▁Nailed	-11973
▁Photos	-11974
▁Pickup	-11975
▁Placed	-11976
▁Pocket	-11977
▁Policy	-11978
▁Prices	-11979
▁Rastay	-11980
▁Recite	-11981
▁Refund	-11982
▁Repair	-11983
▁Saving	-11984
▁Shobuj	-11985
▁Shokal	-11986
▁Shower	-11987
▁Shubho	-11988
▁Sunday	-11989
▁Sylhet	-11990
▁Tahole	-11991
▁Trains	-11992
▁Verify	-11993
▁achiev	-11994
▁admire	-11995
▁afraid	-11996
▁annual	-11997
▁anyone	-11998
▁artifa	-11999
Sil	-12000
oil	-12001
ানী	-12002
Life	-12003
ames	-12004
ants	-12005
este	-12006
fall	-12007
only	-12008
oses	-12009
▁Too	-12010
▁hog	-12011
▁tum	-12012
▁কলা	-12013
▁মের	-12014
▁সংয	-12015
arian	-12016
eeper	-12017
ingle	-12018
usion	-12019
▁cone	-12020
▁fort	-12021
▁jail	-12022
▁khay	-12023
▁rong	-12024
▁soil	-12025
▁tard	-12026
▁অনুপ	-12027
▁ফুঁক	-12028
▁মন্দ	-12029
▁মুছি	-12030
▁মেইল	-12031
Silent	-12032
atable	-12033
outine	-12034
ricane	-12035
ন্টারে	-12036
▁Bajar	-12037
▁Drive	-12038
▁Roses	-12039
▁Super	-12040
▁Tweak	-12041
▁chain	-12042
▁hashi	-12043
▁looms	-12044
▁natok	-12045
▁spoil	-12046
▁swing	-12047
▁thali	-12048
▁খেলবো	-12049
▁মাছের	-12050
▁Guitar	-12051
▁Jingle	-12052
▁asking	-12053
▁asolei	-12054
▁assist	-12055
▁bakery	-12056
▁banaye	-12057
▁banger	-12058
▁bashen	-12059
▁basher	-12060
▁bhoray	-12061
▁binges	-12062
▁bolche	-12063
▁bolchi	-12064
▁boshle	-12065
▁bosses	-12066
▁breath	-12067
▁brutal	-12068
▁buried	-12069
▁burner	-12070
▁chalan	-12071
▁chance	-12072
▁chhata	-12073
▁chilen	-12074
▁chosen	-12075
▁circul	-12076
▁cities	-12077
▁claims	-12078
▁clouds	-12079
▁cloudy	-12080
▁coding	-12081
▁colour	-12082
▁couple	-12083
▁cousin	-12084
▁cringe	-12085
▁crises	-12086
▁croons	-12087
▁decked	-12088
▁dental	-12089
▁destro	-12090
▁detect	-12091
▁dhakka	-12092
▁diechi	-12093
▁donate	-12094
▁dreams	-12095
▁dreamy	-12096
▁dusted	-12097
▁eidgah	-12098
▁ending	-12099
Cut	-12100
akt	-12101
pre	-12102
রিত	-12103
ালন	-12104
োজি	-12105
room	-12106
uted	-12107
▁dek	-12108
▁dug	-12109
▁era	-12110
▁ful	-12111
▁lat	-12112
▁noy	-12113
▁saj	-12114
▁siz	-12115
▁tag	-12116
▁ধান	-12117
aktar	-12118
arran	-12119
ested	-12120
▁Dine	-12121
▁Done	-12122
▁Ever	-12123
▁Hall	-12124
▁Heat	-12125
▁bhab	-12126
▁chit	-12127
▁gear	-12128
▁jaye	-12129
▁jhor	-12130
▁paro	-12131
▁sets	-12132
▁thro	-12133
▁ছুটি	-12134
▁পালন	-12135
▁মেঘে	-12136
▁মেলে	-12137
▁লোকস	-12138
preted	-12139
▁Choto	-12140
▁goods	-12141
▁korlo	-12142
▁pande	-12143
▁sizes	-12144
▁trail	-12145
▁ইমোজি	-12146
▁তুলুন	-12147
▁বাস্ত	-12148
▁বিয়ে	-12149
▁বিরতি	-12150
▁ভক্ষণ	-12151
▁ভাঁড়	-12152
▁মারার	-12153
▁হইহুল	-12154
্যালয়ে	-12155
▁Making	-12156
▁Shaadi	-12157
▁adults	-12158
▁angers	-12159
▁apples	-12160
▁dekhar	-12161
▁dragon	-12162
▁entire	-12163
▁exists	-12164
▁expire	-12165
▁faucet	-12166
▁fights	-12167
▁figure	-12168
▁freeze	-12169
▁fusion	-12170
▁galaxy	-12171
▁geyser	-12172
▁ghumao	-12173
▁global	-12174
▁golper	-12175
▁gotten	-12176
▁groans	-12177
▁growth	-12178
▁guilty	-12179
▁hishab	-12180
▁hoileo	-12181
▁hostel	-12182
▁impact	-12183
▁jammed	-12184
▁jazzed	-12185
▁jester	-12186
▁jovial	-12187
▁karone	-12188
▁khaibo	-12189
▁khelte	-12190
▁khujte	-12191
▁kidnap	-12192
▁killer	-12193
▁kinlen	-12194
▁lately	-12195
▁layout	-12196
▁logged	-12197
▁longer	-12198
▁luxury	-12199
ASA	-12200
hum	-12201
কাউ	-12202
াবো	-12203
Must	-12204
Tech	-12205
ঙ্গি	-12206
ালনা	-12207
▁Mat	-12208
▁tap	-12209
▁দেই	-12210
▁ধার	-12211
▁পরা	-12212
ipped	-12213
ঁয়াজ	-12214
▁Ghum	-12215
▁Line	-12216
▁Look	-12217
▁Mall	-12218
▁NASA	-12219
▁Spot	-12220
▁Took	-12221
▁aloo	-12222
▁atte	-12223
▁bone	-12224
▁cozy	-12225
▁debe	-12226
▁hasn	-12227
▁lack	-12228
▁mare	-12229
▁nach	-12230
▁repe	-12231
▁বিনা	-12232
▁লেবু	-12233
asting	-12234
ership	-12235
ightly	-12236
utting	-12237
▁bolbo	-12238
▁clash	-12239
▁fares	-12240
▁haate	-12241
▁plain	-12242
▁rocks	-12243
▁shack	-12244
▁thong	-12245
▁usual	-12246
▁warna	-12247
▁কাটাই	-12248
▁খেলবে	-12249
▁জন্যও	-12250
▁জানার	-12251
▁দেখবে	-12252
▁প্রেত	-12253
▁লেবুর	-12254
▁শীতের	-12255
cedures	-12256
ization	-12257
▁Diwali	-12258
▁Sharir	-12259
▁Stroll	-12260
▁attent	-12261
▁chaile	-12262
▁forest	-12263
▁insane	-12264
▁leader	-12265
▁maayer	-12266
▁mailed	-12267
▁makeup	-12268
▁marked	-12269
▁masala	-12270
▁matiye	-12271
▁mayhem	-12272
▁milest	-12273
▁misfit	-12274
▁module	-12275
▁months	-12276
▁morale	-12277
▁nicely	-12278
▁nijeke	-12279
▁noshto	-12280
▁onekta	-12281
▁ongsho	-12282
▁onions	-12283
▁parini	-12284
▁partam	-12285
▁pathay	-12286
▁perman	-12287
▁petrol	-12288
▁pharma	-12289
▁picked	-12290
▁pickup	-12291
▁pirate	-12292
▁plates	-12293
▁porben	-12294
▁porche	-12295
▁propos	-12296
▁pushed	-12297
▁quotes	-12298
▁rastay	-12299
It	-12300
▁উল	-12301
areq	-12302
chat	-12303
talk	-12304
ন্সে	-12305
▁Oil	-12306
haten	-12307
▁Biye	-12308
▁Mark	-12309
▁pump	-12310
ingful	-12311
▁Tareq	-12312
▁matha	-12313
▁morbo	-12314
▁চড়ার	-12315
▁chilam	-12316
▁effect	-12317
▁reboot	-12318
▁regret	-12319
▁remain	-12320
▁reruns	-12321
▁rescue	-12322
▁roasts	-12323
▁rushed	-12324
▁safari	-12325
▁scared	-12326
▁scenic	-12327
▁scheme	-12328
▁scores	-12329
▁senior	-12330
▁shakes	-12331
▁shanto	-12332
▁sharir	-12333
▁sheets	-12334
▁shirts	-12335
▁shobji	-12336
▁shokto	-12337
▁shorts	-12338
▁shouts	-12339
▁signed	-12340
▁sipper	-12341
▁smiled	-12342
▁sokale	-12343
▁sprint	-12344
▁steals	-12345
▁strain	-12346
▁strict	-12347
▁subway	-12348
▁swiper	-12349
▁teaser	-12350
▁thakte	-12351
▁thakun	-12352
▁thonga	-12353
▁tissue	-12354
▁tomake	-12355
▁treats	-12356
▁uneasy	-12357
▁unplug	-12358
▁viewed	-12359
▁vision	-12360
▁volley	-12361
▁wished	-12362
▁worthy	-12363
▁wouldn	-12364
▁অতীতের	-12365
▁অবশেষে	-12366
▁অবশ্যই	-12367
▁অসতর্ক	-12368
▁আশেপাশ	-12369
▁ইন্সটল	-12370
▁উদ্ধার	-12371
▁এসেছিল	-12372
▁কমাবেন	-12373
▁কষাকষি	-12374
▁কাঁপতে	-12375
▁কাটালে	-12376
▁কিনবেন	-12377
▁কিনলাম	-12378
▁কেনায়	-12379
▁কোর্সে	-12380
▁ক্ষুধা	-12381
▁খাচ্ছে	-12382
▁খাবারও	-12383
▁খুঁড়ে	-12384
▁খেলবেন	-12385
▁খেলায়	-12386
▁গাড়ির	-12387
▁গার্ডে	-12388
▁চাঁদের	-12389
▁চাওয়া	-12390
▁চাহিদা	-12391
▁জামাটি	-12392
▁জুতোটি	-12393
▁টেক্সট	-12394
▁ট্রিপে	-12395
▁তাণ্ডব	-12396
▁তোমাকে	-12397
▁দক্ষতা	-12398
▁দিচ্ছি	-12399
▁দিচ্ছে	-12400
▁দুর্গা	-12401
▁দুর্বল	-12402
▁দুশ্চি	-12403
▁দেরিতে	-12404
▁দৌড়াও	-12405
▁দ্রব্য	-12406
▁নাটকের	-12407
▁নিদ্রা	-12408
▁পড়ছেন	-12409
▁পরিচয়	-12410
▁পরিচিত	-12411
▁পরিশোধ	-12412
▁পাচ্ছি	-12413
▁পানীয়	-12414
▁পুস্তক	-12415
▁পৃথিবী	-12416
▁পৌঁছতে	-12417
▁প্রবাহ	-12418
▁ফুটেছে	-12419
▁বলেছেন	-12420
▁বাঁচবে	-12421
▁বাজাতে	-12422
▁বানাতে	-12423
▁বিক্রি	-12424
▁বুঝেছে	-12425
▁বোঝাতে	-12426
▁ভোজনের	-12427
▁মতামতও	-12428
▁মনোভাব	-12429
▁মিনিটস	-12430
▁মুরগির	-12431
▁মুশকিল	-12432
▁যথেষ্ট	-12433
▁রৌদ্রো	-12434
▁লাগলাম	-12435
▁লাগাতে	-12436
▁শিকারি	-12437
▁শিক্ষক	-12438
▁সকালেই	-12439
▁সমাজের	-12440
▁সমৃদ্ধ	-12441
▁সরাসরি	-12442
▁সাঁতার	-12443
▁সামনের	-12444
▁সিএনজি	-12445
▁সুইমিং	-12446
▁স্টেশন	-12447
▁হৃদয়ে	-12448
arranged	-12449
drinking	-12450
exchange	-12451
fortable	-12452
getables	-12453
graduate	-12454
irements	-12455
lectrify	-12456
npacking	-12457
ructured	-12458
shubidha	-12459
skilling	-12460
tainment	-12461
venience	-12462
নিশিয়ান	-12463
্সারসাইজ	-12464
▁Address	-12465
▁Balance	-12466
▁Battery	-12467
▁Calling	-12468
▁Chatted	-12469
▁Chinese	-12470
▁Compare	-12471
▁Connect	-12472
▁English	-12473
▁Everest	-12474
▁Feeding	-12475
▁Fuchkar	-12476
▁Golpota	-12477
▁Grabbed	-12478
▁History	-12479
▁However	-12480
▁Italian	-12481
▁Khabare	-12482
▁Manager	-12483
▁Medical	-12484
▁Nonstop	-12485
▁Olympic	-12486
▁Perfect	-12487
▁Prepare	-12488
▁Rangoli	-12489
▁Restart	-12490
▁Routine	-12491
▁Rushing	-12492
▁Scenery	-12493
▁Scoring	-12494
▁Silence	-12495
▁Squeeze	-12496
▁Started	-12497
▁Stretch	-12498
▁Stuffed	-12499
▁Success	-12500
▁Sunrise	-12501
▁Towards	-12502
▁Triumph	-12503
▁Twinkle	-12504
▁Vibrant	-12505
▁Wearing	-12506
▁Without	-12507
▁Working	-12508
▁Workout	-12509
▁actions	-12510
▁adhoora	-12511
▁airline	-12512
▁airship	-12513
▁answers	-12514
▁anticip	-12515
▁anxious	-12516
▁automat	-12517
▁babohar	-12518
▁balcony	-12519
▁banaben	-12520
▁bananas	-12521
▁bankers	-12522
▁banking	-12523
▁bellies	-12524
▁biggest	-12525
▁blender	-12526
▁bloomed	-12527
▁boleche	-12528
▁bolechi	-12529
▁breaker	-12530
▁browser	-12531
▁buffers	-12532
▁bujhben	-12533
▁cabbage	-12534
▁cackles	-12535
▁calming	-12536
▁carrots	-12537
▁caterer	-12538
▁chalate	-12539
▁chaliye	-12540
▁chapter	-12541
▁chatter	-12542
▁cherish	-12543
▁cholano	-12544
▁cleared	-12545
▁clients	-12546
▁climate	-12547
▁coaster	-12548
▁command	-12549
▁console	-12550
▁contain	-12551
▁courage	-12552
▁cousins	-12553
▁crashed	-12554
▁curious	-12555
▁curtain	-12556
▁delight	-12557
▁deposit	-12558
▁dialing	-12559
▁disrupt	-12560
▁distant	-12561
▁dodging	-12562
▁drained	-12563
▁dressed	-12564
▁driving	-12565
▁durable	-12566
▁dynamic	-12567
▁elderly	-12568
▁empties	-12569
▁endless	-12570
▁english	-12571
▁eshechi	-12572
▁excuses	-12573
▁exhibit	-12574
▁expense	-12575
▁faculty	-12576
▁farmers	-12577
▁fasting	-12578
▁feeding	-12579
▁flexing	-12580
▁flyover	-12581
▁footage	-12582
▁foreign	-12583
▁freezes	-12584
▁funeral	-12585
▁furious	-12586
▁ghumiye	-12587
▁grandma	-12588
▁guiding	-12589
▁gulping	-12590
▁hanshbe	-12591
▁hashtag	-12592
▁healing	-12593
▁hideout	-12594
▁highway	-12595
▁hishebe	-12596
▁honking	-12597
▁immense	-12598
▁infrast	-12599
▁invited	-12600
▁jachhen	-12601
▁jiboner	-12602
▁jiggesh	-12603
▁joining	-12604
▁journal	-12605
▁komanor	-12606
▁korchis	-12607
▁lagchen	-12608
▁lasagna	-12609
▁learner	-12610
▁leaving	-12611
▁letting	-12612
▁license	-12613
▁lifting	-12614
▁likhchi	-12615
▁located	-12616
▁miracle	-12617
▁modules	-12618
▁muhurto	-12619
▁noodles	-12620
▁opekkha	-12621
▁operate	-12622
▁organic	-12623
▁overeat	-12624
▁overpay	-12625
▁painful	-12626
▁paratha	-12627
▁pathiye	-12628
▁pichone	-12629
▁platter	-12630
▁playful	-12631
▁pockets	-12632
▁pouring	-12633
▁private	-12634
▁profile	-12635
▁pronaam	-12636
▁provide	-12637
▁publish	-12638
▁putting	-12639
▁quizzes	-12640
▁raiding	-12641
▁rainbow	-12642
▁rakhben	-12643
▁rangoli	-12644
▁reacted	-12645
▁realize	-12646
▁recited	-12647
▁robotic	-12648
▁rushing	-12649
▁sandesh	-12650
▁selling	-12651
▁shunlam	-12652
▁shuttle	-12653
▁signage	-12654
▁similar	-12655
▁snoozer	-12656
▁snowman	-12657
▁somehow	-12658
▁sounded	-12659
▁spectre	-12660
▁staging	-12661
▁stalker	-12662
▁strange	-12663
▁strolls	-12664
▁tablets	-12665
▁tempted	-12666
▁trapped	-12667
▁unavoid	-12668
▁utility	-12669
▁vampire	-12670
▁virtual	-12671
▁volcano	-12672
▁warming	-12673
▁weights	-12674
▁অন্ধকার	-12675
▁অন্বেষণ	-12676
▁অন্যরকম	-12677
▁অ্যাডভে	-12678
▁আতশবাজি	-12679
▁আন্তরিক	-12680
▁উন্মোচন	-12681
▁একধরনের	-12682
▁কয়েকটি	-12683
▁কষাকষির	-12684
▁কারখানা	-12685
▁কার্যকর	-12686
▁কৃষকেরা	-12687
▁ক্যামের	-12688
▁ক্রয়ের	-12689
▁খাদ্যের	-12690
▁খুঁজছেন	-12691
▁গাড়িটি	-12692
▁গুরুত্ব	-12693
▁গ্রহণের	-12694
▁চালাবেন	-12695
▁জুড়ায়	-12696
▁ট্রেনিং	-12697
▁ডায়েরি	-12698
▁দিচ্ছেন	-12699
▁দৃশ্যটি	-12700
▁দৃষ্টিভ	-12701
▁নিস্তেজ	-12702
▁পদক্ষেপ	-12703
▁পরিপাটি	-12704
▁পর্যন্ত	-12705
▁পাখিদের	-12706
▁পাচ্ছেন	-12707
▁পাঠাবেন	-12708
▁পাঠিয়ে	-12709
▁পূর্বের	-12710
▁পেঁয়াজ	-12711
▁পোশাকটি	-12712
▁পৌঁছাবে	-12713
▁পৌঁছাবো	-12714
▁প্রভাতে	-12715
▁প্রশিক্	-12716
▁বাড়ানো	-12717
▁বাতাসের	-12718
▁বিপত্তি	-12719
▁বিলম্বে	-12720
▁বিশেষজ্	-12721
▁বিশ্বাস	-12722
▁বুঝিয়ে	-12723
▁ব্যাকআপ	-12724
▁ভাইয়ের	-12725
▁ভুলকারী	-12726
▁ভেবেছেন	-12727
▁মনোযোগী	-12728
▁মিটিংটা	-12729
▁যাত্রার	-12730
▁রহস্যের	-12731
▁রিসার্চ	-12732
▁শয্যায়	-12733
▁শীতকালে	-12734
▁শুকিয়ে	-12735
▁সন্ধানী	-12736
▁সমস্যার	-12737
▁সাশ্রয়	-12738
▁সিনেমার	-12739
▁সুপারিশ	-12740
▁হাস্যরস	-12741
formative	-12742
icipation	-12743
ificantly	-12744
membering	-12745
npolished	-12746
osophical	-12747
struction	-12748
সাহসিকতার	-12749
▁Bringing	-12750
▁Ceremony	-12751
▁Chilling	-12752
▁Choosing	-12753
▁Coughing	-12754
▁Document	-12755
▁Enjoying	-12756
▁Finished	-12757
▁Glittery	-12758
▁Gobbling	-12759
▁Intellig	-12760
▁Leftover	-12761
▁LinkedIn	-12762
▁Lowering	-12763
▁Managing	-12764
▁Meetings	-12765
▁Messages	-12766
▁Midnight	-12767
▁Munching	-12768
▁Navigate	-12769
▁Organize	-12770
▁Platform	-12771
▁Playtime	-12772
▁Procrast	-12773
▁Purchase	-12774
▁Recharge	-12775
▁Shortcut	-12776
▁Spilling	-12777
▁Starving	-12778
▁Suddenly	-12779
▁Vitamins	-12780
▁Wishlist	-12781
▁academic	-12782
▁adulting	-12783
▁airlines	-12784
▁appetite	-12785
▁argument	-12786
▁artistic	-12787
▁audience	-12788
▁backbone	-12789
▁backlogs	-12790
▁backpack	-12791
▁baniechi	-12792
▁barbecue	-12793
▁bichanay	-12794
▁blessing	-12795
▁bondhura	-12796
▁bookings	-12797
▁boosting	-12798
▁borrowed	-12799
▁bringing	-12800
▁brothers	-12801
▁busyness	-12802
▁calories	-12803
▁captured	-12804
▁cashless	-12805
▁centered	-12806
▁charging	-12807
▁checkups	-12808
▁cheering	-12809
▁cholchhe	-12810
▁choritam	-12811
▁chuckles	-12812
▁circling	-12813
▁continue	-12814
▁contract	-12815
▁coughing	-12816
▁coworker	-12817
▁cracking	-12818
▁creature	-12819
▁curtains	-12820
▁designed	-12821
▁director	-12822
▁disrupts	-12823
▁diyechen	-12824
▁dominate	-12825
▁donation	-12826
▁dramatic	-12827
▁expected	-12828
▁gechhilo	-12829
▁golgappa	-12830
▁graphics	-12831
▁greatest	-12832
▁greenery	-12833
▁grumbles	-12834
▁guessing	-12835
▁headline	-12836
▁homebody	-12837
▁hopeless	-12838
▁hygienic	-12839
▁ignition	-12840
▁includes	-12841
▁injuries	-12842
▁isolated	-12843
▁kheyechi	-12844
▁korchhen	-12845
▁lectures	-12846
▁measured	-12847
▁mechanic	-12848
▁meltdown	-12849
▁mentally	-12850
▁minimize	-12851
▁mismatch	-12852
▁misunder	-12853
▁monotony	-12854
▁multiple	-12855
▁niyomito	-12856
▁nowadays	-12857
▁oblivion	-12858
▁occasion	-12859
▁occupied	-12860
▁omelette	-12861
▁optional	-12862
▁ordering	-12863
▁overtime	-12864
▁painting	-12865
▁pastries	-12866
▁pathaben	-12867
▁perfects	-12868
▁peyechhi	-12869
▁politely	-12870
▁powerful	-12871
▁precious	-12872
▁predator	-12873
▁previous	-12874
▁procrast	-12875
▁programs	-12876
▁promptly	-12877
▁provided	-12878
▁realized	-12879
▁reflects	-12880
▁revising	-12881
▁revision	-12882
▁sabotage	-12883
▁saplings	-12884
▁scanning	-12885
▁searches	-12886
▁shooting	-12887
▁sidewalk	-12888
▁simultan	-12889
▁slightly	-12890
▁smelling	-12891
▁smoother	-12892
▁smuggler	-12893
▁snacking	-12894
▁sometime	-12895
▁speaking	-12896
▁specific	-12897
▁spinning	-12898
▁splasher	-12899
▁splurger	-12900
▁stations	-12901
▁steroids	-12902
▁stomachs	-12903
▁stranded	-12904
▁stuffing	-12905
▁surround	-12906
▁survival	-12907
▁sweeping	-12908
▁swimming	-12909
▁telecast	-12910
▁throwing	-12911
▁timepass	-12912
▁unstable	-12913
▁verbally	-12914
▁wellness	-12915
▁whispers	-12916
▁অর্ডারের	-12917
▁আবিষ্কার	-12918
▁ওয়েবসাই	-12919
▁কণ্ঠস্বর	-12920
▁করেছিলেন	-12921
▁কামিয়াব	-12922
▁খেয়েছেন	-12923
▁ঘর্মাক্ত	-12924
▁চূড়ান্ত	-12925
▁ছোটবেলার	-12926
▁ঠান্ডায়	-12927
▁ড্রাইভার	-12928
▁দেখাচ্ছে	-12929
▁নির্ধারণ	-12930
▁নিশ্চয়ই	-12931
▁পরিচালনা	-12932
▁পরিদর্শন	-12933
▁পেস্ট্রি	-12934
▁প্রকল্পে	-12935
▁প্রজাপতি	-12936
▁প্রথমবার	-12937
▁প্রস্তাব	-12938
▁বাঁধাকপি	-12939
▁বিড়ালকে	-12940
▁বিড়ালটি	-12941
▁ব্যস্ততা	-12942
▁ভদ্রভাবে	-12943
▁ভোজনরসিক	-12944
▁মূল্যবান	-12945
▁রোমান্সে	-12946
▁লিঙ্কডইন	-12947
▁সংগ্রাহক	-12948
▁সংস্কৃতি	-12949
▁সাইলেন্ট	-12950
▁স্বাদহীন	-12951
▁হাঙ্গামা	-12952
▁হাসিখুশি	-12953
efficiency	-12954
negotiable	-12955
nnecessary	-12956
vegetables	-12957
▁Christmas	-12958
▁Colleague	-12959
▁Decisions	-12960
▁Defective	-12961
▁Furniture	-12962
▁Hollywood	-12963
▁Intercity	-12964
▁Marketing	-12965
▁Negotiate	-12966
▁Otherwise	-12967
▁Poribarer	-12968
▁Recording	-12969
▁Returning	-12970
▁Selecting	-12971
▁Technical	-12972
▁Tollywood	-12973
▁Treadmill	-12974
▁activates	-12975
▁advantage	-12976
▁attentive	-12977
▁baniyechi	-12978
▁blueprint	-12979
▁blunderer	-12980
▁bondhutto	-12981
▁butterfly	-12982
▁captivate	-12983
▁committee	-12984
▁commuting	-12985
▁complaint	-12986
▁concerned	-12987
▁congested	-12988
▁contacted	-12989
▁cooperate	-12990
▁cosmetics	-12991
▁decreased	-12992
▁defective	-12993
▁detection	-12994
▁dietitian	-12995
▁electrify	-12996
▁energized	-12997
▁exploring	-12998
▁fountains	-12999
▁gechhilen	-13000
▁generator	-13001
▁gradually	-13002
▁guarantee	-13003
▁hoechhilo	-13004
▁humorless	-13005
▁hurricane	-13006
▁hypnotize	-13007
▁impatient	-13008
▁influence	-13009
▁intensity	-13010
▁intereste	-13011
▁introduce	-13012
▁investors	-13013
▁kheyechen	-13014
▁librarian	-13015
▁lightning	-13016
▁marathons	-13017
▁milestone	-13018
▁neighbors	-13019
▁nostalgia	-13020
▁observing	-13021
▁oshubidha	-13022
▁ourselves	-13023
▁pacchilam	-13024
▁patiently	-13025
▁patriotic	-13026
▁performed	-13027
▁placement	-13028
▁polishing	-13029
▁pouchhben	-13030
▁priceless	-13031
▁processed	-13032
▁processor	-13033
▁purchased	-13034
▁recharges	-13035
▁relatives	-13036
▁religious	-13037
▁repairing	-13038
▁rosogolla	-13039
▁scavenger	-13040
▁sensitive	-13041
▁shattered	-13042
▁spiritual	-13043
▁splurging	-13044
▁spotlight	-13045
▁squeezing	-13046
▁statement	-13047
▁strangers	-13048
▁stressful	-13049
▁supervise	-13050
▁tardiness	-13051
▁therapist	-13052
▁vibrating	-13053
▁waterfall	-13054
▁workspace	-13055
▁অনুসন্ধান	-13056
▁উচ্ছ্বাসে	-13057
▁কাউন্টারে	-13058
▁খাওয়ানোর	-13059
▁গার্ডেনিং	-13060
▁গুছিয়েছি	-13061
▁ছোটবেলায়	-13062
▁জ্বালিয়ে	-13063
▁টাস্কগুলো	-13064
▁দরকষাকষির	-13065
▁দুর্দান্ত	-13066
▁দেখিয়েছে	-13067
▁দোকানগুলো	-13068
▁পড়াশোনার	-13069
▁প্রতিবেদন	-13070
▁প্রত্যাশা	-13071
▁ফাইন্ডিংস	-13072
▁ফাল্গুনের	-13073
▁বেরিয়েছি	-13074
▁ভাইফোঁটার	-13075
▁মানচিত্রে	-13076
▁ম্যানেজার	-13077
▁রেখেছিলাম	-13078
▁শিখিয়েছি	-13079
▁সন্ন্যাসী	-13080
▁সমস্যাজনক	-13081
▁সম্প্রচার	-13082
▁হাসপাতালে	-13083
▁Artificial	-13084
▁Contractor	-13085
▁Contribute	-13086
▁Discussing	-13087
▁Exercising	-13088
▁Organizing	-13089
▁Personally	-13090
▁Responding	-13091
▁Submitting	-13092
▁Ticketless	-13093
▁accessible	-13094
▁achievable	-13095
▁adventures	-13096
▁apocalypse	-13097
▁appliances	-13098
▁attraction	-13099
▁bhalobasar	-13100
▁completion	-13101
▁configured	-13102
▁consistent	-13103
▁contractor	-13104
▁controlled	-13105
▁creativity	-13106
▁dealership	-13107
▁disconnect	-13108
▁discovered	-13109
▁distracted	-13110
▁electronic	-13111
▁encouraged	-13112
▁enrollment	-13113
▁exhibition	-13114
▁expression	-13115
▁forwarding	-13116
▁heatstroke	-13117
▁initiative	-13118
▁kachakachi	-13119
▁kheyechhen	-13120
▁korchhilam	-13121
▁korechhilo	-13122
▁manageable	-13123
▁masterchef	-13124
▁meaningful	-13125
▁negotiator	-13126
▁nightmares	-13127
▁permission	-13128
▁personally	-13129
▁pharmacist	-13130
▁photogenic	-13131
▁precaution	-13132
▁procedures	-13133
▁punishment	-13134
▁reconsider	-13135
▁responding	-13136
▁sandwiches	-13137
▁satisfying	-13138
▁structured	-13139
▁supervised	-13140
▁thoughtful	-13141
▁throughout	-13142
▁unbeatable	-13143
▁undergoing	-13144
▁unpolished	-13145
▁upskilling	-13146
▁vocabulary	-13147
▁volleyball	-13148
▁আবহাওয়ায়	-13149
▁উদ্ধারকারী	-13150
▁এক্সারসাইজ	-13151
▁কাটিয়েছেন	-13152
▁ক্রিয়েটিভ	-13153
▁ঝাড়িয়েছি	-13154
▁তাড়াহুড়ো	-13155
▁দিয়েছিলাম	-13156
▁নিয়ন্ত্রণ	-13157
▁প্রিয়জনের	-13158
▁বানিয়েছেন	-13159
▁বারান্দায়	-13160
▁বিদ্যালয়ে	-13161
▁ব্রেকফাস্ট	-13162
▁রহস্যধর্মী	-13163
▁লাগিয়েছেন	-13164
▁হইহুল্লোড়	-13165
▁Assignments	-13166
▁Preparation	-13167
▁Remembering	-13168
▁Transaction	-13169
▁Vaccination	-13170
▁accessories	-13171
▁application	-13172
▁approaching	-13173
▁bhalobashen	-13174
▁certificate	-13175
▁collaborate	-13176
▁continental	-13177
▁cooperative	-13178
▁fascinating	-13179
▁flexibility	-13180
▁formalities	-13181
▁handicrafts	-13182
▁instruments	-13183
▁interpreted	-13184
▁nervousness	-13185
▁nutritional	-13186
▁outstanding	-13187
▁pandemonium	-13188
▁participant	-13189
▁permanently	-13190
▁programming	-13191
▁recommended	-13192
▁resolutions	-13193
▁responsible	-13194
▁unavoidable	-13195
▁understands	-13196
▁অবিস্মরণীয়	-13197
▁টেকনিশিয়ান	-13198
▁দৃষ্টিভঙ্গি	-13199
▁পরিকল্পনাটা	-13200
▁বিভ্রান্তির	-13201
▁Independence	-13202
▁Intelligence	-13203
▁Performances	-13204
▁Receptionist	-13205
▁Subscription	-13206
▁Troubleshoot	-13207
▁achievements	-13208
▁capabilities	-13209
▁competitions	-13210
▁congratulate	-13211
▁continuously	-13212
▁contributing	-13213
▁coordination	-13214
▁dekhechhilen	-13215
▁embarrassing	-13216
▁finalization	-13217
▁postgraduate	-13218
▁requirements	-13219
▁troubleshoot	-13220
▁unexpectedly	-13221
▁অ্যাপ্লিকেশন	-13222
▁কাগজপত্রগুলো	-13223
▁জানিয়েছিলাম	-13224
▁ডকুমেন্টগুলো	-13225
▁ধাক্কাধাক্কি	-13226
▁রৌদ্রোজ্জ্বল	-13227
▁Entertainment	-13228
▁International	-13229
▁Participation	-13230
▁automatically	-13231
▁inconvenience	-13232
▁knowledgeable	-13233
▁opportunities	-13234
▁philosophical	-13235
▁significantly	-13236
▁uncomfortable	-13237
▁উত্তেজনাপূর্ণ	-13238
▁infrastructure	-13239
▁simultaneously	-13240
▁transformative	-13241
▁Procrastination	-13242
Doc	-13243
baj	-13244
bji	-13245
buo	-13246
udh	-13247
কনো	-13248
গোছ	-13249
জোর	-13250
টগো	-13251
টুই	-13252
ঠোপ	-13253
তপা	-13254
বরত	-13255
মিম	-13256
লুদ	-13257
িমল	-13258
্ভা	-13259
▁থম	-13260
Adha	-13261
Lady	-13262
camp	-13263
hoda	-13264
huti	-13265
iyas	-13266
kjon	-13267
ktor	-13268
mili	-13269
nigh	-13270
rats	-13271
rupt	-13272
tona	-13273
vabe	-13274
কপ্র	-13275
গড়া	-13276
গিরই	-13277
চ্চৈ	-13278
জবের	-13279
টুইট	-13280
ঠোপথ	-13281
দানি	-13282
ন্সি	-13283
পালে	-13284
ব্রত	-13285
মশলা	-13286
মুখর	-13287
ম্ভব	-13288
ম্মত	-13289
রানো	-13290
র্ণা	-13291
লিতে	-13292
শলার	-13293
সকাউ	-13294
িশের	-13295
ুমুক	-13296
েরণা	-13297
েলাঠ	-13298
োদয়	-13299
GPS	-13300
বরণ	-13301
ৃহে	-13302
amaj	-13303
dhye	-13304
গারে	-13305
ঙ্কর	-13306
থাসা	-13307
শাগত	-13308
্জিং	-13309
্বিশ	-13310
্রসূ	-13311
▁DMs	-13312
▁dud	-13313
▁duj	-13314
▁duk	-13315
▁esc	-13316
▁kob	-13317
▁অপচ	-13318
▁অবস	-13319
▁অসহ	-13320
▁আদা	-13321
▁খিট	-13322
▁ছুঁ	-13323
▁ঝিল	-13324
▁থলি	-13325
▁ধূল	-13326
▁ফেঁ	-13327
▁বৈঠ	-13328
▁মৃত	-13329
▁রোদ	-13330
▁রোল	-13331
▁হট্	-13332
Lower	-13333
Menus	-13334
Reels	-13335
ampen	-13336
bajna	-13337
baked	-13338
blood	-13339
bobor	-13340
ceptu	-13341
choes	-13342
elays	-13343
etime	-13344
genda	-13345
incer	-13346
oshon	-13347
piece	-13348
tacul	-13349
udhho	-13350
ukand	-13351
undor	-13352
ycles	-13353
ংকারে	-13354
কপ্রদ	-13355
ক্সবা	-13356
গগিরই	-13357
ঙ্গীত	-13358
চার্জ	-13359
ডমিলে	-13360
তপাখা	-13361
তলায়	-13362
ন্যাস	-13363
প্রসূ	-13364
বেলার	-13365
ব্বিশ	-13366
ভিড়ে	-13367
ভুক্ত	-13368
ভেন্ট	-13369
মুক্ত	-13370
মুগ্ধ	-13371
ম্বনা	-13372
য়াইপ	-13373
র্মিং	-13374
শুড়ি	-13375
স্কৃত	-13376
ানাটা	-13377
িমলিন	-13378
ুজবের	-13379
ৃঙ্খল	-13380
োরেলে	-13381
্জিকা	-13382
্বরিত	-13383
্ভাষণ	-13384
্রিফি	-13385
▁Asol	-13386
▁Boat	-13387
▁Bold	-13388
▁Cars	-13389
▁Cris	-13390
▁Hire	-13391
▁Jama	-13392
▁Korb	-13393
▁Luck	-13394
▁Muri	-13395
▁Thik	-13396
▁alpo	-13397
▁anub	-13398
▁awak	-13399
Tui	-13400
এমন	-13401
মনো	-13402
Gali	-13403
irjo	-13404
কমের	-13405
শাপা	-13406
▁রূপ	-13407
angin	-13408
প্তাহ	-13409
র্বাদ	-13410
▁bela	-13411
▁bich	-13412
▁bisw	-13413
▁bund	-13414
▁chuk	-13415
▁curb	-13416
▁dogs	-13417
▁empt	-13418
▁grin	-13419
▁halt	-13420
▁hown	-13421
▁icha	-13422
▁info	-13423
▁joru	-13424
▁josh	-13425
▁joto	-13426
▁khon	-13427
▁koma	-13428
▁leaf	-13429
▁legs	-13430
▁nuts	-13431
▁poor	-13432
▁pujo	-13433
▁sang	-13434
▁slap	-13435
▁sulk	-13436
▁tara	-13437
▁utho	-13438
▁whir	-13439
▁অগোছ	-13440
▁অমনো	-13441
▁উঠলে	-13442
▁উঠুক	-13443
▁ওঠেন	-13444
▁কফিশ	-13445
▁কেমি	-13446
▁ক্রি	-13447
▁খাটো	-13448
▁খিটখ	-13449
▁খুলব	-13450
▁গলাধ	-13451
▁গাইড	-13452
▁গৃহে	-13453
▁চলুক	-13454
▁ছুটে	-13455
▁জিতব	-13456
▁ডেস্	-13457
▁থমকে	-13458
▁দেশে	-13459
▁নিরস	-13460
▁নোটস	-13461
▁পথের	-13462
▁পুকু	-13463
▁পেজও	-13464
▁ফুটো	-13465
▁ফেঁস	-13466
▁ফেলব	-13467
▁ফেলে	-13468
▁বিরল	-13469
▁বৃথা	-13470
▁বৈজ্	-13471
▁বৈঠক	-13472
▁ভাইব	-13473
▁ভূমি	-13474
▁ভোরে	-13475
▁মুঠো	-13476
▁মৃতপ	-13477
▁মোড়	-13478
▁লাইভ	-13479
▁সংযত	-13480
▁সেরে	-13481
▁স্পে	-13482
▁হাটি	-13483
Delays	-13484
Filter	-13485
Tomato	-13486
antasy	-13487
cribed	-13488
elcome	-13489
etches	-13490
ishcho	-13491
jhaten	-13492
kritir	-13493
madhan	-13494
matoes	-13495
miliar	-13496
nology	-13497
orkari	-13498
orrect	-13499
bomb	-13500
shno	-13501
umul	-13502
দুকর	-13503
যোগী	-13504
▁Scr	-13505
▁khy	-13506
bless	-13507
bombs	-13508
handa	-13509
পোর্ট	-13510
য়োরি	-13511
▁Cons	-13512
▁agen	-13513
▁harv	-13514
▁pool	-13515
▁puff	-13516
▁pupp	-13517
▁sunk	-13518
▁thok	-13519
▁wars	-13520
▁wise	-13521
▁ক্রে	-13522
▁চক্র	-13523
▁লেকে	-13524
▁শিখি	-13525
oyager	-13526
potato	-13527
priced	-13528
quired	-13529
riched	-13530
riedly	-13531
shobji	-13532
terweg	-13533
ueless	-13534
uisine	-13535
unmute	-13536
কসজ্জা	-13537
টগোলের	-13538
ডমিন্ট	-13539
দাওয়া	-13540
বিয়ের	-13541
বেদনের	-13542
যন্ত্র	-13543
যাপনের	-13544
শাপাশি	-13545
াচ্ছিল	-13546
িক্রয়	-13547
্যাকিং	-13548
্রদ্ধা	-13549
্রাণিত	-13550
্রিফিং	-13551
্রেরণা	-13552
্রেষ্ঠ	-13553
▁Alert	-13554
▁Beach	-13555
▁Bhalo	-13556
▁Bides	-13557
▁Bills	-13558
▁Blank	-13559
▁Crisp	-13560
▁Curry	-13561
▁Diary	-13562
▁Drama	-13563
▁Dying	-13564
▁Fairy	-13565
▁Games	-13566
▁Ghure	-13567
▁Goals	-13568
▁Horns	-13569
▁Inbox	-13570
▁Learn	-13571
▁Meter	-13572
▁Porar	-13573
▁Reels	-13574
▁Remix	-13575
▁Sales	-13576
▁Saves	-13577
▁Score	-13578
▁Scrut	-13579
▁Serve	-13580
▁Shond	-13581
▁Slide	-13582
▁Those	-13583
▁Tobuo	-13584
▁Twink	-13585
▁achan	-13586
▁ajkal	-13587
▁armed	-13588
▁ashbe	-13589
▁bajay	-13590
▁bajle	-13591
▁beriy	-13592
▁bites	-13593
▁colds	-13594
▁corre	-13595
▁cours	-13596
▁creep	-13597
▁cross	-13598
▁dekhi	-13599
Capt	-13600
Cute	-13601
bber	-13602
dhuk	-13603
kdin	-13604
loot	-13605
কোনো	-13606
ত্রি	-13607
▁নমন	-13608
dhukk	-13609
ঁধবেন	-13610
কর্তা	-13611
দামের	-13612
ন্নতি	-13613
বাসের	-13614
রিদ্র	-13615
ষণীয়	-13616
স্বাস	-13617
ার্কে	-13618
▁Chil	-13619
▁Goal	-13620
▁Idle	-13621
▁chem	-13622
▁litt	-13623
▁zoom	-13624
▁উত্ত	-13625
▁ধরতে	-13626
▁সুশো	-13627
▁হজমে	-13628
agical	-13629
dhukki	-13630
mbling	-13631
nekdin	-13632
tleman	-13633
ক্ষত্র	-13634
গুজবের	-13635
নিধ্যে	-13636
ন্নতির	-13637
স্বাস্	-13638
▁Carry	-13639
▁disco	-13640
▁dodge	-13641
▁dolls	-13642
▁escap	-13643
▁evabe	-13644
▁fancy	-13645
▁firec	-13646
▁flaun	-13647
▁fuler	-13648
▁gaana	-13649
▁harms	-13650
▁heatw	-13651
▁hides	-13652
▁hoped	-13653
▁ichha	-13654
▁inspo	-13655
▁jaowa	-13656
▁jawar	-13657
▁jemon	-13658
▁jhore	-13659
▁katha	-13660
▁khill	-13661
▁khoje	-13662
▁khola	-13663
▁khuje	-13664
▁khyal	-13665
▁kinbe	-13666
▁kinbo	-13667
▁kinen	-13668
▁kiner	-13669
▁koruk	-13670
▁laage	-13671
▁lefto	-13672
▁lekha	-13673
▁limit	-13674
▁littl	-13675
▁loads	-13676
▁machh	-13677
▁magic	-13678
▁marar	-13679
▁marau	-13680
▁marbo	-13681
▁marte	-13682
▁maybe	-13683
▁murgi	-13684
▁muted	-13685
▁niten	-13686
▁pachh	-13687
▁paowa	-13688
▁pedal	-13689
▁pitha	-13690
▁poets	-13691
▁posit	-13692
▁rebel	-13693
▁remix	-13694
▁rises	-13695
▁saris	-13696
▁sheta	-13697
▁shigh	-13698
▁shono	-13699
রমি	-13700
chhi	-13701
hawa	-13702
riti	-13703
রমিচ	-13704
▁Sav	-13705
▁নরম	-13706
▁সির	-13707
iggle	-13708
দিষ্ট	-13709
শক্তি	-13710
▁Char	-13711
▁achi	-13712
▁geye	-13713
▁jobs	-13714
▁kaje	-13715
▁পুতু	-13716
▁ভেসে	-13717
▁ভোগে	-13718
▁রুটে	-13719
▁হাজি	-13720
arfing	-13721
bohawa	-13722
though	-13723
চিরমিচ	-13724
▁Jagga	-13725
▁Sport	-13726
▁brish	-13727
▁chawa	-13728
▁dumps	-13729
▁haunt	-13730
▁hurts	-13731
▁modem	-13732
▁nachi	-13733
▁opens	-13734
▁sathi	-13735
▁sites	-13736
▁skips	-13737
▁slept	-13738
▁slots	-13739
▁slows	-13740
▁sriti	-13741
▁stirs	-13742
▁subhe	-13743
▁swaps	-13744
▁takay	-13745
▁thoda	-13746
▁throt	-13747
▁tours	-13748
▁truth	-13749
▁tummy	-13750
▁views	-13751
▁wears	-13752
▁whirl	-13753
▁wilts	-13754
▁wired	-13755
▁wrath	-13756
▁অপচয়	-13757
▁অফারও	-13758
▁আক্রম	-13759
▁আবেদন	-13760
▁আসছেন	-13761
▁উচ্চৈ	-13762
▁উচ্ছল	-13763
▁উঠলাম	-13764
▁উল্লে	-13765
▁একসঙ্	-13766
▁এসাইন	-13767
▁কয়লা	-13768
▁কাউকে	-13769
▁কাটলো	-13770
▁কামনা	-13771
▁কোনটা	-13772
▁ক্যাক	-13773
▁ক্ষতি	-13774
▁ক্ষমা	-13775
▁খরচের	-13776
▁খিটখি	-13777
▁গেমটি	-13778
▁গ্রাফ	-13779
▁চাদরে	-13780
▁ছিলেন	-13781
▁ছুঁড়	-13782
▁জমায়	-13783
▁জমেছে	-13784
▁জাগলে	-13785
▁ঝরানো	-13786
▁ঝর্ণা	-13787
▁ঝাঁকু	-13788
▁ঝালমু	-13789
▁ঝালের	-13790
▁ঝিলিক	-13791
▁টেস্ট	-13792
▁ট্রেই	-13793
▁ঠেলাঠ	-13794
▁ডাকবো	-13795
▁ডালের	-13796
▁তৃপ্ত	-13797
▁তোলার	-13798
▁ধরণের	-13799
ংবা	-13800
দ্ভ	-13801
kaan	-13802
pose	-13803
slid	-13804
▁gem	-13805
▁কলি	-13806
▁কোল	-13807
▁বেগ	-13808
▁ভোর	-13809
halla	-13810
oding	-13811
orgot	-13812
rench	-13813
ukaan	-13814
uying	-13815
দ্ভুত	-13816
বেচ্ছ	-13817
মধ্যে	-13818
মানের	-13819
▁Data	-13820
▁desc	-13821
▁desp	-13822
▁dose	-13823
▁heav	-13824
▁juto	-13825
▁nibe	-13826
▁poro	-13827
▁টিকা	-13828
▁পরেও	-13829
▁পূজা	-13830
▁মেডি	-13831
▁যেটা	-13832
▁সাজস	-13833
Buying	-13834
Forgot	-13835
inkles	-13836
ryside	-13837
ত্যন্ত	-13838
▁Decor	-13839
▁Likes	-13840
▁banay	-13841
▁chalu	-13842
▁heads	-13843
▁patak	-13844
▁porai	-13845
▁porbe	-13846
▁shant	-13847
▁কিংবা	-13848
▁কোল্ড	-13849
▁চাচ্ছ	-13850
▁ধরেনি	-13851
▁নগরের	-13852
▁নদীতে	-13853
▁নিয়ন	-13854
▁নিলেন	-13855
▁পড়বো	-13856
▁পাত্র	-13857
▁পুজোর	-13858
▁প্রবল	-13859
▁ফলমূল	-13860
▁ফাঁকি	-13861
▁ফেলছি	-13862
▁ফেলতে	-13863
▁ফ্রাই	-13864
▁বছরটা	-13865
▁বসবাস	-13866
▁বাজলে	-13867
▁বানাই	-13868
▁বাবার	-13869
▁বিবরণ	-13870
▁বিলটি	-13871
▁বিলের	-13872
▁বেগুন	-13873
▁বেড়া	-13874
▁ভিজতে	-13875
▁ভোরবে	-13876
▁ভোলার	-13877
▁মন্দি	-13878
▁মারতে	-13879
▁মারলে	-13880
▁মেঘলা	-13881
▁মেট্র	-13882
▁যেয়ে	-13883
▁রকমের	-13884
▁লাগতে	-13885
▁শুনুন	-13886
▁সকলের	-13887
▁সম্মত	-13888
▁সর্দি	-13889
▁সারাজ	-13890
▁স্থবি	-13891
▁স্পেশ	-13892
▁হচ্ছি	-13893
▁হাজির	-13894
Caption	-13895
Wedding	-13896
andicra	-13897
asizing	-13898
athroom	-13899
জুক	-13900
▁লব	-13901
▁লু	-13902
cuum	-13903
ikel	-13904
▁laz	-13905
▁আসি	-13906
▁লঙ্	-13907
▁লবণ	-13908
acuum	-13909
জেস্ট	-13910
লক্ষে	-13911
়ভাবে	-13912
ারিতে	-13913
▁Wake	-13914
▁ashl	-13915
▁cree	-13916
▁flun	-13917
▁obak	-13918
▁paoa	-13919
▁আসার	-13920
▁কমছে	-13921
▁কম্ব	-13922
▁নামা	-13923
▁ফেরি	-13924
▁মহায	-13925
achcha	-13926
yekjon	-13927
▁Pract	-13928
▁bends	-13929
▁bikel	-13930
▁broth	-13931
▁chola	-13932
▁chose	-13933
▁eggpl	-13934
▁knows	-13935
▁pants	-13936
▁sunar	-13937
▁thokk	-13938
▁আসলাম	-13939
▁জানান	-13940
▁জানাল	-13941
▁দিয়া	-13942
▁পড়ুক	-13943
▁লঙ্কা	-13944
▁লাজুক	-13945
▁শুকনো	-13946
ception	-13947
charged	-13948
echhile	-13949
iriyani	-13950
iteness	-13951
ittered	-13952
logized	-13953
ootcamp	-13954
popping	-13955
quashed	-13956
ranches	-13957
surance	-13958
telling	-13959
terwegs	-13960
ukandar	-13961
weaking	-13962
ংস্কৃতি	-13963
কাউন্টে	-13964
টারিস্ট	-13965
দরদামের	-13966
প্তাহিক	-13967
বিক্রয়	-13968
মুগ্ধকর	-13969
মেন্টকে	-13970
য়োরিটি	-13971
শীর্বাদ	-13972
ষ্টান্ন	-13973
সকাউন্ট	-13974
স্টার্ট	-13975
স্ত্রাণ	-13976
স্থাপনা	-13977
াচ্ছন্দ	-13978
ালাময়ী	-13979
োজ্জ্বল	-13980
▁Agenda	-13981
▁Anyone	-13982
▁Basant	-13983
▁Booked	-13984
▁Boshon	-13985
▁Bosses	-13986
▁Cardio	-13987
▁Caught	-13988
▁Closed	-13989
▁Credit	-13990
▁Daktar	-13991
▁Figure	-13992
▁Forgot	-13993
▁Gadget	-13994
▁Giggle	-13995
▁Hustle	-13996
▁Kharap	-13997
▁Korban	-13998
▁Letter	-13999
mbu	-14000
ডিং	-14001
াছা	-14002
bari	-14003
ears	-14004
ncle	-14005
কাশি	-14006
ত্বে	-14007
লাইন	-14008
▁Rem	-14009
▁kem	-14010
▁তেম	-14011
▁সত্	-14012
earch	-14013
enced	-14014
iming	-14015
morth	-14016
spect	-14017
ঙ্কের	-14018
ত্বেও	-14019
নাপতি	-14020
ফলাইন	-14021
শেডিং	-14022
্যময়	-14023
▁Jani	-14024
▁Near	-14025
▁Reel	-14026
▁doze	-14027
▁hise	-14028
▁চাটি	-14029
▁ছবির	-14030
▁দেশি	-14031
▁নোনা	-14032
▁ভরাও	-14033
aining	-14034
ieving	-14035
rowned	-14036
▁Indul	-14037
▁beray	-14038
▁death	-14039
▁kemne	-14040
▁lagar	-14041
▁lagto	-14042
▁nimbu	-14043
▁আগাছা	-14044
▁আলোয়	-14045
▁এয়ার	-14046
▁কমায়	-14047
▁কাটতে	-14048
▁তেমনি	-14049
▁থাকছে	-14050
▁প্রাগ	-14051
▁প্রোভ	-14052
▁রাখছি	-14053
▁সম্পদ	-14054
itality	-14055
itching	-14056
morthon	-14057
▁Aiming	-14058
▁Father	-14059
▁Gather	-14060
▁Lining	-14061
▁Nearby	-14062
▁Overhe	-14063
▁Panted	-14064
▁Poetic	-14065
▁Prasad	-14066
▁Pushed	-14067
▁Record	-14068
▁Remote	-14069
▁Shudhu	-14070
▁Sister	-14071
▁Slowly	-14072
▁Speedy	-14073
▁Sprint	-14074
▁Thesis	-14075
▁Walker	-14076
▁achish	-14077
▁agency	-14078
▁anubha	-14079
▁aschhe	-14080
▁ashlan	-14081
▁ashtes	-14082
▁awaken	-14083
▁bajano	-14084
▁banale	-14085
▁banate	-14086
▁berong	-14087
▁berote	-14088
▁bijoya	-14089
▁biking	-14090
▁blames	-14091
▁bolech	-14092
▁bolini	-14093
▁bollan	-14094
▁bolsen	-14095
▁boshen	-14096
▁brisht	-14097
▁buffal	-14098
▁bunked	-14099
দাদ	-14100
বুক	-14101
ভিত	-14102
ilsa	-14103
sles	-14104
ules	-14105
দাদি	-14106
লেটে	-14107
ষষ্ঠ	-14108
▁Acc	-14109
bates	-14110
dings	-14111
বলেটে	-14112
বস্তু	-14113
রিত্র	-14114
▁Mach	-14115
▁ashi	-14116
▁bach	-14117
▁dawa	-14118
▁আসবো	-14119
▁কঠোর	-14120
▁খেলত	-14121
▁ছোট্	-14122
▁দিলো	-14123
▁ভুলব	-14124
▁ষষ্ঠ	-14125
▁হলুদ	-14126
▁Rules	-14127
▁bolbe	-14128
▁bolun	-14129
▁decla	-14130
▁guest	-14131
▁hilsa	-14132
▁loops	-14133
▁rekhe	-14134
▁spell	-14135
▁terms	-14136
▁খবরটা	-14137
▁ছোট্ট	-14138
▁পার্ট	-14139
▁হাঁটি	-14140
eddings	-14141
▁Stages	-14142
▁barite	-14143
▁bolish	-14144
▁buzzes	-14145
▁calmed	-14146
▁canvas	-14147
▁champs	-14148
▁charco	-14149
▁chhuti	-14150
▁chukti	-14151
▁circle	-14152
▁clicks	-14153
▁concep	-14154
▁cycles	-14155
▁daktar	-14156
▁define	-14157
▁dekhbe	-14158
▁dekhbo	-14159
▁derite	-14160
▁descri	-14161
▁dhorte	-14162
▁dichen	-14163
▁differ	-14164
▁direct	-14165
▁dodges	-14166
▁drowns	-14167
▁dukkho	-14168
▁endure	-14169
▁fortun	-14170
▁ghumer	-14171
▁gobble	-14172
▁grandm	-14173
▁graphs	-14174
▁grinds	-14175
▁hanged	-14176
▁hisebe	-14177
▁honest	-14178
▁ichche	-14179
▁immers	-14180
▁indoor	-14181
▁invade	-14182
▁jachhe	-14183
▁jorito	-14184
▁joruri	-14185
▁karcho	-14186
▁katate	-14187
▁keeper	-14188
▁khayal	-14189
▁khilli	-14190
▁killed	-14191
▁komate	-14192
▁kotota	-14193
▁lagale	-14194
▁latest	-14195
▁lattes	-14196
▁lekhar	-14197
▁lifted	-14198
▁linked	-14199
sue	-14200
ীষণ	-14201
bits	-14202
grab	-14203
্যুপ	-14204
▁nij	-14205
▁অনব	-14206
▁গুহ	-14207
erved	-14208
faced	-14209
inize	-14210
jomat	-14211
ouses	-14212
taway	-14213
চুড়ি	-14214
দিনার	-14215
নারের	-14216
শাড়ি	-14217
্যস্ত	-14218
▁Fore	-14219
▁Pets	-14220
▁Tarz	-14221
▁dign	-14222
▁draw	-14223
▁erup	-14224
▁fits	-14225
▁hoop	-14226
▁joys	-14227
▁lush	-14228
▁mukh	-14229
▁unha	-14230
▁unhe	-14231
▁অনবদ	-14232
▁আরোগ	-14233
▁এখান	-14234
▁জানো	-14235
▁জেগো	-14236
▁নৌকা	-14237
▁বলছে	-14238
▁ভীষণ	-14239
▁লাইট	-14240
▁শিশি	-14241
▁স্কে	-14242
ল্পনার	-14243
শাড়ির	-14244
▁House	-14245
▁awful	-14246
▁deets	-14247
▁nijer	-14248
▁retwe	-14249
▁গুহাম	-14250
▁ধাড়ি	-14251
▁শাড়ি	-14252
▁সংবাদ	-14253
▁স্কেচ	-14254
▁স্যুপ	-14255
▁হাতের	-14256
▁Jokhon	-14257
▁Tarzan	-14258
▁asleep	-14259
▁erupts	-14260
▁habits	-14261
▁hoopla	-14262
▁houses	-14263
▁khidey	-14264
▁losing	-14265
▁marche	-14266
▁meetup	-14267
▁mohila	-14268
▁mounts	-14269
▁nachbe	-14270
▁nearly	-14271
▁niechi	-14272
▁openly	-14273
▁orange	-14274
▁parlam	-14275
▁paroni	-14276
▁phones	-14277
▁poetry	-14278
▁porchi	-14279
▁porlam	-14280
▁prasad	-14281
▁promot	-14282
▁puppet	-14283
▁pursue	-14284
▁queues	-14285
▁racket	-14286
▁rangin	-14287
▁remote	-14288
▁roamer	-14289
▁robber	-14290
▁rongin	-14291
▁scents	-14292
▁sender	-14293
▁severe	-14294
▁shiver	-14295
▁shobuj	-14296
▁shonar	-14297
▁shonbo	-14298
▁shonen	-14299
fix	-14300
উজে	-14301
ততা	-14302
ধীর	-14303
মীর	-14304
িপস	-14305
▁টু	-14306
alty	-14307
olid	-14308
town	-14309
তাকে	-14310
▁wol	-14311
▁ওপর	-14312
▁ডিশ	-14313
▁ফিড	-14314
▁সেভ	-14315
yalty	-14316
ভাবিত	-14317
ায়তা	-14318
▁Ants	-14319
▁Sand	-14320
▁begs	-14321
▁chow	-14322
▁koth	-14323
▁mari	-14324
▁pets	-14325
▁tore	-14326
▁wolf	-14327
▁অধীর	-14328
▁চিপস	-14329
▁টায়	-14330
▁ফিডব	-14331
▁মনোহ	-14332
▁যেমন	-14333
▁সততা	-14334
argain	-14335
flower	-14336
oliday	-14337
চিতদের	-14338
▁bhora	-14339
▁crawl	-14340
▁steep	-14341
▁wreck	-14342
▁একটান	-14343
▁কিনলো	-14344
▁নিউজে	-14345
▁পাঠের	-14346
▁বাদ্য	-14347
▁মনোহর	-14348
▁মেন্য	-14349
▁সবাইও	-14350
Bargain	-14351
allying	-14352
▁Change	-14353
▁French	-14354
▁hating	-14355
▁kinlam	-14356
▁kothin	-14357
▁shubho	-14358
▁shukna	-14359
▁sleepy	-14360
▁smiles	-14361
▁sneaks	-14362
▁sneaky	-14363
▁sparkl	-14364
▁spring	-14365
▁stream	-14366
▁swears	-14367
▁tagged	-14368
▁thakar	-14369
▁thakuk	-14370
▁thekeo	-14371
▁throat	-14372
▁throws	-14373
▁tiring	-14374
▁tornad	-14375
▁toward	-14376
▁tracks	-14377
▁tulben	-14378
▁unlock	-14379
▁vacuum	-14380
▁warmly	-14381
▁weekly	-14382
▁whines	-14383
▁wilted	-14384
▁yudhho	-14385
▁অদ্ভুত	-14386
▁অনবদ্য	-14387
▁অনুরোধ	-14388
▁অন্যরা	-14389
▁অফলাইন	-14390
▁অর্থের	-14391
▁আক্রমণ	-14392
▁আগামীর	-14393
▁আগ্রহে	-14394
▁আড্ডাই	-14395
▁আরেকটা	-14396
▁আরোগ্য	-14397
▁উড়ায়	-14398
▁উল্লাস	-14399
ope	-14400
টুন	-14401
বিঘ	-14402
▁Ju	-14403
abok	-14404
airm	-14405
cite	-14406
ners	-14407
oked	-14408
oken	-14409
কাঠি	-14410
ক্ষু	-14411
বন্ত	-14412
বিঘ্	-14413
▁Joy	-14414
▁Pub	-14415
▁নিব	-14416
▁নিভ	-14417
bsess	-14418
ensor	-14419
itely	-14420
kabok	-14421
ulted	-14422
ultei	-14423
unted	-14424
ভ্যাস	-14425
শার্ট	-14426
ুনেছি	-14427
ুলন্ত	-14428
▁Gari	-14429
▁Hope	-14430
▁Pubg	-14431
▁Shas	-14432
▁Spam	-14433
▁brew	-14434
▁firm	-14435
▁hans	-14436
▁nilo	-14437
▁rais	-14438
▁rook	-14439
▁silo	-14440
▁site	-14441
▁গড়ে	-14442
▁পরবে	-14443
▁ফুলঝ	-14444
▁স্বী	-14445
Potato	-14446
airman	-14447
atedly	-14448
elated	-14449
icated	-14450
obsess	-14451
বিঘ্নে	-14452
▁Joked	-14453
▁Juice	-14454
▁kholo	-14455
▁marks	-14456
▁shite	-14457
▁করিনি	-14458
▁চক্ষু	-14459
▁ছুটুন	-14460
▁দেখেন	-14461
▁নিবার	-14462
▁ফুলঝু	-14463
kabokir	-14464
▁Excite	-14465
▁Sensor	-14466
▁Shashu	-14467
▁bottom	-14468
▁fatiye	-14469
▁firmly	-14470
▁hanshe	-14471
▁misses	-14472
▁mutter	-14473
▁raisin	-14474
▁rookie	-14475
▁salads	-14476
▁spoken	-14477
▁trains	-14478
▁unbear	-14479
▁উৎসবকে	-14480
▁একদিনে	-14481
▁একসময়	-14482
▁একেবার	-14483
▁এড়াতে	-14484
▁কফিশপে	-14485
▁কলিগের	-14486
▁কষ্টটা	-14487
▁কাজকর্	-14488
▁কাটবেন	-14489
▁কাটাবো	-14490
▁কাটায়	-14491
▁কার্ডে	-14492
▁কার্যক	-14493
▁কাশিতে	-14494
▁কিনেছে	-14495
▁কিভাবে	-14496
▁কেটেছি	-14497
▁ক্রয়ে	-14498
▁খাদ্যা	-14499
ফোন	-14500
▁Ka	-14501
eace	-14502
rano	-14503
ruly	-14504
▁Kaj	-14505
▁এলো	-14506
▁তাক	-14507
▁পরশ	-14508
▁লাভ	-14509
forms	-14510
mpler	-14511
ওয়াশ	-14512
স্কার	-14513
▁Kaaj	-14514
▁Turn	-14515
▁asha	-14516
▁asle	-14517
▁didi	-14518
▁mush	-14519
▁outd	-14520
▁prat	-14521
▁অর্থ	-14522
▁দালা	-14523
▁পরশু	-14524
▁পাক্	-14525
▁ফেটে	-14526
▁ভাবে	-14527
▁মানে	-14528
isance	-14529
ওয়ালা	-14530
বসম্মত	-14531
▁Memor	-14532
▁Peace	-14533
▁Truly	-14534
▁aside	-14535
▁chint	-14536
▁comas	-14537
▁excel	-14538
▁mushk	-14539
▁outta	-14540
▁vibey	-14541
▁আসবেই	-14542
▁ওয়াশ	-14543
▁তাকান	-14544
▁দালাল	-14545
▁দুদিন	-14546
▁যুক্ত	-14547
filling	-14548
uisance	-14549
ার্টফোন	-14550
▁Sports	-14551
▁harano	-14552
▁scient	-14553
▁shopta	-14554
▁tokhon	-14555
▁waking	-14556
▁উল্লেখ	-14557
▁খাদ্যে	-14558
▁খুঁজুন	-14559
▁খেলতাম	-14560
▁খেলাটি	-14561
▁খোঁজেন	-14562
▁গল্পটা	-14563
▁গোসলের	-14564
▁গ্রহের	-14565
▁গ্রামী	-14566
▁ঘন্টার	-14567
▁ঘুমানো	-14568
▁ঘুমোতে	-14569
▁ঘুরবেন	-14570
▁চব্বিশ	-14571
▁চাইবেন	-14572
▁চিন্তি	-14573
▁চ্যানে	-14574
▁ছড়ানো	-14575
▁ছোঁয়া	-14576
▁জাগরণে	-14577
▁জামাকা	-14578
▁ঝংকারে	-14579
▁ট্রাফি	-14580
▁ডাকছেন	-14581
▁তারারা	-14582
▁তুলতেও	-14583
▁তুলেছে	-14584
▁ত্বরিত	-14585
▁থাকলেও	-14586
▁দাঁতের	-14587
▁দূরত্ব	-14588
▁দেখতেও	-14589
▁দেখলেই	-14590
▁ধোয়ার	-14591
▁নমনীয়	-14592
▁নম্বরে	-14593
▁নিবারণ	-14594
▁নিয়েই	-14595
▁নৌকায়	-14596
▁পাক্কা	-14597
▁পাখিরা	-14598
▁পাতায়	-14599
aps	-14600
ode	-14601
Mode	-14602
apar	-14603
ride	-14604
বারও	-14605
ামলা	-14606
▁Nap	-14607
▁lob	-14608
▁ড্র	-14609
▁পরব	-14610
▁শির	-14611
Modem	-14612
hanor	-14613
igher	-14614
iving	-14615
▁Baro	-14616
▁Chug	-14617
▁Coll	-14618
▁Mist	-14619
▁Roll	-14620
▁ekla	-14621
▁laby	-14622
▁reti	-14623
▁toug	-14624
▁ধুমে	-14625
▁বসুন	-14626
▁লাভে	-14627
Energy	-14628
জেন্সি	-14629
থাগারে	-14630
▁Diyas	-14631
▁Misti	-14632
▁bapar	-14633
▁bhara	-14634
▁ektai	-14635
▁labyr	-14636
▁leaps	-14637
▁likhe	-14638
▁lobon	-14639
▁proti	-14640
▁trash	-14641
▁চুমুক	-14642
▁ছুটির	-14643
▁ড্রিং	-14644
▁পড়ান	-14645
▁ভুলটি	-14646
▁হামলা	-14647
cussion	-14648
enechhe	-14649
rubbing	-14650
▁Bought	-14651
▁Living	-14652
▁bishoy	-14653
▁damage	-14654
▁errors	-14655
▁higher	-14656
▁paidal	-14657
▁resist	-14658
▁আকাশটা	-14659
▁দরিদ্র	-14660
▁পুকুরে	-14661
▁পুরোটা	-14662
▁পূরণের	-14663
▁পূর্বে	-14664
▁পেয়েছ	-14665
▁পেরেছো	-14666
▁পেশাগত	-14667
▁প্রতিশ	-14668
▁ফাল্গু	-14669
▁ফাস্টফ	-14670
▁ফ্যাশন	-14671
▁বাঁচুন	-14672
▁বাইকের	-14673
▁বাড়ান	-14674
▁বাস্তব	-14675
▁বিখ্যা	-14676
▁বিচ্ছি	-14677
▁বিব্রত	-14678
▁বুদ্ধি	-14679
▁বেড়াও	-14680
▁বেলায়	-14681
▁ভক্ষণে	-14682
▁ভদ্রতা	-14683
▁ভরিয়ে	-14684
▁ভাবছেন	-14685
▁ভাষায়	-14686
▁ভিজবেন	-14687
▁ভুলবেন	-14688
▁ভূমিকা	-14689
▁ভেবেছি	-14690
▁মসজিদে	-14691
▁মাথায়	-14692
▁মুঠোয়	-14693
▁মেঠোপথ	-14694
▁মেন্যু	-14695
▁মেরেছে	-14696
▁মেলাটি	-14697
▁ম্যাপে	-14698
▁যানজটে	-14699
ীবন	-14700
abai	-14701
cold	-14702
onto	-14703
rags	-14704
teep	-14705
ময়ে	-14706
ায়ন	-14707
▁bai	-14708
▁buj	-14709
▁ekh	-14710
▁eto	-14711
▁গিফ	-14712
▁গুণ	-14713
▁ঘন্	-14714
▁ঘাস	-14715
▁তিন	-14716
▁মাথ	-14717
ooned	-14718
roben	-14719
upure	-14720
ধাঁধা	-14721
সময়ে	-14722
্রায়	-14723
▁Dure	-14724
▁gach	-14725
▁gold	-14726
▁hust	-14727
▁ship	-14728
▁উঠার	-14729
▁কাদা	-14730
▁গায়	-14731
▁গিফট	-14732
▁ঘড়ি	-14733
▁পেরে	-14734
▁প্লট	-14735
▁মায়	-14736
▁হাঁক	-14737
cooned	-14738
raffic	-14739
raight	-14740
কধাঁধা	-14741
জীবনের	-14742
▁Babai	-14743
▁Steep	-14744
▁baire	-14745
▁brags	-14746
▁bujhe	-14747
▁ekhun	-14748
▁nijei	-14749
▁piled	-14750
▁অনবরত	-14751
▁গুণটা	-14752
▁গ্রন্	-14753
▁ঘন্টা	-14754
▁জিততে	-14755
▁বাইকে	-14756
▁মাথার	-14757
▁লিকটি	-14758
▁লেগেই	-14759
Traffic	-14760
লকধাঁধা	-14761
▁Dupure	-14762
▁ekhuni	-14763
▁escape	-14764
▁joking	-14765
▁pronto	-14766
▁waited	-14767
▁প্রার্	-14768
▁প্লটটি	-14769
▁বানাবো	-14770
▁মায়ের	-14771
▁যেখানে	-14772
▁রাত্রি	-14773
▁রাত্রে	-14774
▁রিটুইট	-14775
▁লিখলাম	-14776
▁শক্তির	-14777
▁শরীরটা	-14778
▁শিখেছে	-14779
▁শিশিরে	-14780
▁শীতলতা	-14781
▁শুরুতে	-14782
▁শেখাতে	-14783
▁শোনাতে	-14784
▁সংখ্যা	-14785
▁সময়টি	-14786
▁সহকারে	-14787
▁সাজালে	-14788
▁সিরিয়	-14789
▁সুরেলা	-14790
▁সৈকতের	-14791
▁স্টাডি	-14792
▁স্থবির	-14793
▁স্বচ্ছ	-14794
▁স্বাদে	-14795
▁হাঁটছে	-14796
▁হোলিতে	-14797
Potatoes	-14798
Tomatoes	-14799
Or	-14800
ঘা	-14801
Bus	-14802
bye	-14803
ইনি	-14804
করণ	-14805
ঘাত	-14806
টিল	-14807
তাভ	-14808
মেন	-14809
রুভ	-14810
Ekta	-14811
Just	-14812
atra	-14813
came	-14814
chis	-14815
elar	-14816
hame	-14817
tsab	-14818
tuck	-14819
tume	-14820
মেনু	-14821
রুভূ	-14822
▁gap	-14823
▁ডুব	-14824
▁দলে	-14825
▁ভোট	-14826
▁মাস	-14827
▁মিম	-14828
Order	-14829
Stuck	-14830
osest	-14831
ক্তাভ	-14832
রুভূম	-14833
▁acho	-14834
▁desi	-14835
▁fool	-14836
▁todd	-14837
▁আঘাত	-14838
▁জটিল	-14839
▁পেটে	-14840
▁ভেবে	-14841
hamela	-14842
ostume	-14843
▁Melar	-14844
▁Worry	-14845
▁crown	-14846
▁dhoka	-14847
▁greet	-14848
▁jatra	-14849
▁packs	-14850
▁puffs	-14851
▁নিইনি	-14852
▁পুড়ে	-14853
▁মশলার	-14854
▁মারকা	-14855
▁মাসের	-14856
থাসাধ্য	-14857
রুভূমির	-14858
▁biswas	-14859
▁lagiye	-14860
▁modify	-14861
▁অনেকটা	-14862
▁অসম্ভব	-14863
▁পাগলের	-14864
▁যাদুকর	-14865
▁রক্তাভ	-14866
achhilen	-14867
boborsho	-14868
chieving	-14869
dallying	-14870
discount	-14871
finitely	-14872
grabbing	-14873
ixelated	-14874
obsessed	-14875
ordinary	-14876
pressure	-14877
specting	-14878
spilling	-14879
tlemania	-14880
together	-14881
ইন্টারনে	-14882
ক্সবাজার	-14883
ডেলিভারি	-14884
ন্নিধ্যে	-14885
বেচ্ছাসে	-14886
স্টর্মিং	-14887
স্ত্রিকে	-14888
ৈতিহাসিক	-14889
্যাবেলার	-14890
▁Account	-14891
▁Anekdin	-14892
▁Bachcha	-14893
▁Burning	-14894
▁Caption	-14895
▁Charges	-14896
▁Chasing	-14897
▁Checked	-14898
▁Classic	-14899
si	-14900
Get	-14901
err	-14902
gri	-14903
haj	-14904
ral	-14905
▁নই	-14906
▁নু	-14907
Come	-14908
cker	-14909
grim	-14910
tent	-14911
কানি	-14912
▁Rel	-14913
▁nic	-14914
▁রাই	-14915
erris	-14916
llion	-14917
roper	-14918
▁Emon	-14919
▁Jhor	-14920
▁Like	-14921
▁Relu	-14922
▁cent	-14923
▁fall	-14924
▁gali	-14925
▁likh	-14926
▁ছিলো	-14927
▁নইলে	-14928
▁পাবো	-14929
▁বিবে	-14930
▁রাইড	-14931
▁হাইড	-14932
Proper	-14933
attent	-14934
ilgrim	-14935
mpting	-14936
racker	-14937
▁asset	-14938
▁barlo	-14939
▁falls	-14940
▁korsi	-14941
▁obhab	-14942
▁rains	-14943
▁দাঁতে	-14944
▁ধরোনি	-14945
▁নুয়ে	-14946
▁ফাঁকা	-14947
▁বিবেচ	-14948
▁বোটিং	-14949
bellion	-14950
▁Reluct	-14951
▁bahire	-14952
▁chalbe	-14953
▁ferris	-14954
▁nicchi	-14955
▁shohaj	-14956
▁কাটলাম	-14957
▁ছড়ালে	-14958
▁জমিয়ে	-14959
▁ঝলকানি	-14960
▁নেমেছি	-14961
▁রংয়ের	-14962
▁হাইড্র	-14963
স্থিতিতে	-14964
▁Commute	-14965
▁Company	-14966
▁Concert	-14967
▁Consult	-14968
▁Control	-14969
▁Costume	-14970
▁Cuisine	-14971
▁Debates	-14972
▁Dieting	-14973
▁Entered	-14974
▁Festive	-14975
▁Foreign	-14976
▁Gaining	-14977
▁Gourmet	-14978
▁Grandma	-14979
▁Halfway	-14980
▁Hanging	-14981
▁Holiday	-14982
▁Indulge	-14983
▁Luckily	-14984
▁Magical	-14985
▁Mohalla	-14986
▁Offline	-14987
▁Outdoor	-14988
▁Outside	-14989
▁Passing	-14990
▁Pinging	-14991
▁Premium	-14992
▁Printer	-14993
▁Process	-14994
▁Prochur	-14995
▁Proshno	-14996
▁Pushing	-14997
▁Putting	-14998
▁Receipt	-14999
দো	-15000
ুস	-15001
Bro	-15002
Day	-15003
Ice	-15004
esk	-15005
ius	-15006
oes	-15007
roi	-15008
রদো	-15009
াটি	-15010
▁yo	-15011
mile	-15012
osto	-15013
গরদো	-15014
গ্রত	-15015
র্কি	-15016
ুসুম	-15017
▁fra	-15018
▁gor	-15019
▁soo	-15020
▁গুল	-15021
Bhabi	-15022
Feels	-15023
reasy	-15024
ক্ষের	-15025
ছিয়ে	-15026
র্কিত	-15027
▁Desk	-15028
▁ends	-15029
▁foss	-15030
▁majh	-15031
▁pais	-15032
▁sare	-15033
▁utha	-15034
▁দেবী	-15035
▁মারি	-15036
গরদোলা	-15037
▁Smile	-15038
▁Table	-15039
▁bhaja	-15040
▁dhoro	-15041
▁frame	-15042
▁gorom	-15043
▁hasbe	-15044
▁nosto	-15045
▁paisa	-15046
▁saree	-15047
▁কুসুম	-15048
▁তেলের	-15049
▁বালির	-15050
▁মিলনে	-15051
odified	-15052
▁Doktor	-15053
▁Dukaan	-15054
▁Greasy	-15055
▁adding	-15056
▁bother	-15057
▁fossil	-15058
▁genius	-15059
▁likhte	-15060
▁whirlw	-15061
▁কক্ষের	-15062
▁জাগ্রত	-15063
▁দেয়নি	-15064
▁লাইনটি	-15065
modified	-15066
▁Looking	-15067
▁Panting	-15068
▁Recover	-15069
▁Results	-15070
▁Reviews	-15071
▁Romance	-15072
▁Savings	-15073
▁Sekhane	-15074
▁Shastho	-15075
▁Shondha	-15076
▁Shundor	-15077
▁Singing	-15078
▁Sipping	-15079
▁Sitting	-15080
▁Slicing	-15081
▁Someone	-15082
▁Syncing	-15083
▁Tarporo	-15084
▁Tasting	-15085
▁Tossing	-15086
▁Variety	-15087
▁Various	-15088
▁Vitamin	-15089
▁Website	-15090
▁accumul	-15091
▁achanak	-15092
▁admired	-15093
▁annoyin	-15094
▁anubhav	-15095
▁appears	-15096
▁appoint	-15097
▁ashtese	-15098
▁bandhan	-15099
ni	-15100
খার	-15101
লাভ	-15102
▁বর	-15103
▁মর	-15104
adar	-15105
arse	-15106
atic	-15107
cean	-15108
্চের	-15109
▁Ana	-15110
▁cas	-15111
▁gel	-15112
▁দিও	-15113
▁নড়	-15114
▁বরং	-15115
andho	-15116
atkhe	-15117
jadar	-15118
osage	-15119
ussle	-15120
▁suno	-15121
▁যদিও	-15122
▁সেটি	-15123
Submit	-15124
ancake	-15125
andhan	-15126
chchen	-15127
enched	-15128
hearse	-15129
hotona	-15130
ischit	-15131
ooling	-15132
▁Analy	-15133
▁gelen	-15134
▁hoyni	-15135
▁muddy	-15136
▁ocean	-15137
▁খেলাম	-15138
▁নীলাভ	-15139
▁ভাষার	-15140
▁মনেরও	-15141
▁মরছেন	-15142
▁রাতেই	-15143
▁লেখার	-15144
▁সঙ্গী	-15145
▁স্ট্র	-15146
▁হাঁপা	-15147
pdating	-15148
venture	-15149
ন্ট্রাল	-15150
▁Canvas	-15151
▁aatkhe	-15152
▁dhorar	-15153
▁dosage	-15154
▁gandho	-15155
▁lining	-15156
▁porlen	-15157
▁tussle	-15158
▁ঝুলন্ত	-15159
▁তুললাম	-15160
▁নড়ছিল	-15161
▁মার্কে	-15162
▁মুখরিত	-15163
▁সমাপ্ত	-15164
nighters	-15165
▁Bandhan	-15166
▁Ghotona	-15167
▁Pancake	-15168
▁Pooling	-15169
▁abohawa	-15170
▁banters	-15171
▁barking	-15172
▁begging	-15173
▁belting	-15174
▁bhulben	-15175
▁bhulish	-15176
▁bichiye	-15177
▁biscuit	-15178
▁blaring	-15179
▁bloated	-15180
▁boating	-15181
▁bolchen	-15182
▁boredom	-15183
▁breezes	-15184
▁bujhteo	-15185
▁bundles	-15186
▁bunking	-15187
▁burning	-15188
▁calmest	-15189
▁central	-15190
▁certain	-15191
▁chasing	-15192
▁chirped	-15193
▁chupcha	-15194
▁cleaner	-15195
▁closely	-15196
▁closest	-15197
▁concern	-15198
▁corners	-15199
নী	-15200
হা	-15201
Dal	-15202
Res	-15203
hit	-15204
oug	-15205
oul	-15206
rie	-15207
sed	-15208
▁আঁ	-15209
Push	-15210
[...]
